{
  "version": "1.0",
  "truncation": null,
  "padding": null,
  "added_tokens": [
    {
      "id": 0,
      "content": "<|pad|>",
      "single_word": false,
      "lstrip": false,
      "rstrip": false,
      "normalized": false,
      "special": true
    },
    {
      "id": 1,
      "content": "<|bos|>",
      "single_word": false,
      "lstrip": false,
      "rstrip": false,
      "normalized": false,
      "special": true
    },
    {
      "id": 2,
      "content": "<|eos|>",
      "single_word": false,
      "lstrip": false,
      "rstrip": false,
      "normalized": false,
      "special": true
    },
    {
      "id": 3,
      "content": "<|unk|>",
      "single_word": false,
      "lstrip": false,
      "rstrip": false,
      "normalized": false,
      "special": true
    },
    {
      "id": 4,
      "content": "<|sep|>",
      "single_word": false,
      "lstrip": false,
      "rstrip": false,
      "normalized": false,
      "special": true
    },
    {
      "id": 5,
      "content": "<|lore|>",
      "single_word": false,
      "lstrip": false,
      "rstrip": false,
      "normalized": false,
      "special": true
    },
    {
      "id": 6,
      "content": "<|scene|>",
      "single_word": false,
      "lstrip": false,
      "rstrip": false,
      "normalized": false,
      "special": true
    },
    {
      "id": 7,
      "content": "<|style|>",
      "single_word": false,
      "lstrip": false,
      "rstrip": false,
      "normalized": false,
      "special": true
    },
    {
      "id": 8,
      "content": "<|inst|>",
      "single_word": false,
      "lstrip": false,
      "rstrip": false,
      "normalized": false,
      "special": true
    },
    {
      "id": 9,
      "content": "<|/inst|>",
      "single_word": false,
      "lstrip": false,
      "rstrip": false,
      "normalized": false,
      "special": true
    }
  ],
  "normalizer": {
    "type": "NFC"
  },
  "pre_tokenizer": {
    "type": "ByteLevel",
    "add_prefix_space": false,
    "trim_offsets": true,
    "use_regex": true
  },
  "post_processor": {
    "type": "TemplateProcessing",
    "single": [
      {
        "Sequence": {
          "id": "A",
          "type_id": 0
        }
      }
    ],
    "pair": [
      {
        "Sequence": {
          "id": "A",
          "type_id": 0
        }
      },
      {
        "Sequence": {
          "id": "B",
          "type_id": 1
        }
      }
    ],
    "special_tokens": {}
  },
  "decoder": {
    "type": "ByteLevel",
    "add_prefix_space": true,
    "trim_offsets": true,
    "use_regex": true
  },
  "model": {
    "type": "BPE",
    "dropout": null,
    "unk_token": "<|unk|>",
    "continuing_subword_prefix": null,
    "end_of_word_suffix": null,
    "fuse_unk": false,
    "byte_fallback": false,
    "ignore_merges": false,
    "vocab": {
      "<|pad|>": 0,
      "<|bos|>": 1,
      "<|eos|>": 2,
      "<|unk|>": 3,
      "<|sep|>": 4,
      "<|lore|>": 5,
      "<|scene|>": 6,
      "<|style|>": 7,
      "<|inst|>": 8,
      "<|/inst|>": 9,
      "!": 10,
      "\"": 11,
      "#": 12,
      "$": 13,
      "%": 14,
      "&": 15,
      "'": 16,
      "(": 17,
      ")": 18,
      "*": 19,
      "+": 20,
      ",": 21,
      "-": 22,
      ".": 23,
      "/": 24,
      "0": 25,
      "1": 26,
      "2": 27,
      "3": 28,
      "4": 29,
      "5": 30,
      "6": 31,
      "7": 32,
      "8": 33,
      "9": 34,
      ":": 35,
      ";": 36,
      "<": 37,
      "=": 38,
      ">": 39,
      "?": 40,
      "@": 41,
      "A": 42,
      "B": 43,
      "C": 44,
      "D": 45,
      "E": 46,
      "F": 47,
      "G": 48,
      "H": 49,
      "I": 50,
      "J": 51,
      "K": 52,
      "L": 53,
      "M": 54,
      "N": 55,
      "O": 56,
      "P": 57,
      "Q": 58,
      "R": 59,
      "S": 60,
      "T": 61,
      "U": 62,
      "V": 63,
      "W": 64,
      "X": 65,
      "Y": 66,
      "Z": 67,
      "[": 68,
      "\\": 69,
      "]": 70,
      "^": 71,
      "_": 72,
      "`": 73,
      "a": 74,
      "b": 75,
      "c": 76,
      "d": 77,
      "e": 78,
      "f": 79,
      "g": 80,
      "h": 81,
      "i": 82,
      "j": 83,
      "k": 84,
      "l": 85,
      "m": 86,
      "n": 87,
      "o": 88,
      "p": 89,
      "q": 90,
      "r": 91,
      "s": 92,
      "t": 93,
      "u": 94,
      "v": 95,
      "w": 96,
      "x": 97,
      "y": 98,
      "z": 99,
      "{": 100,
      "|": 101,
      "}": 102,
      "~": 103,
      "¡": 104,
      "¢": 105,
      "£": 106,
      "¤": 107,
      "¥": 108,
      "¦": 109,
      "§": 110,
      "¨": 111,
      "©": 112,
      "ª": 113,
      "«": 114,
      "¬": 115,
      "®": 116,
      "¯": 117,
      "°": 118,
      "±": 119,
      "²": 120,
      "³": 121,
      "´": 122,
      "µ": 123,
      "¶": 124,
      "·": 125,
      "¸": 126,
      "¹": 127,
      "º": 128,
      "»": 129,
      "¼": 130,
      "½": 131,
      "¾": 132,
      "¿": 133,
      "À": 134,
      "Á": 135,
      "Â": 136,
      "Ã": 137,
      "Ä": 138,
      "Å": 139,
      "Æ": 140,
      "Ç": 141,
      "È": 142,
      "É": 143,
      "Ê": 144,
      "Ë": 145,
      "Ì": 146,
      "Í": 147,
      "Î": 148,
      "Ï": 149,
      "Ð": 150,
      "Ñ": 151,
      "Ò": 152,
      "Ó": 153,
      "Ô": 154,
      "Õ": 155,
      "Ö": 156,
      "×": 157,
      "Ø": 158,
      "Ù": 159,
      "Ú": 160,
      "Û": 161,
      "Ü": 162,
      "Ý": 163,
      "Þ": 164,
      "ß": 165,
      "à": 166,
      "á": 167,
      "â": 168,
      "ã": 169,
      "ä": 170,
      "å": 171,
      "æ": 172,
      "ç": 173,
      "è": 174,
      "é": 175,
      "ê": 176,
      "ë": 177,
      "ì": 178,
      "í": 179,
      "î": 180,
      "ï": 181,
      "ð": 182,
      "ñ": 183,
      "ò": 184,
      "ó": 185,
      "ô": 186,
      "õ": 187,
      "ö": 188,
      "÷": 189,
      "ø": 190,
      "ù": 191,
      "ú": 192,
      "û": 193,
      "ü": 194,
      "ý": 195,
      "þ": 196,
      "ÿ": 197,
      "Ā": 198,
      "ā": 199,
      "Ă": 200,
      "ă": 201,
      "Ą": 202,
      "ą": 203,
      "Ć": 204,
      "ć": 205,
      "Ĉ": 206,
      "ĉ": 207,
      "Ċ": 208,
      "ċ": 209,
      "Č": 210,
      "č": 211,
      "Ď": 212,
      "ď": 213,
      "Đ": 214,
      "đ": 215,
      "Ē": 216,
      "ē": 217,
      "Ĕ": 218,
      "ĕ": 219,
      "Ė": 220,
      "ė": 221,
      "Ę": 222,
      "ę": 223,
      "Ě": 224,
      "ě": 225,
      "Ĝ": 226,
      "ĝ": 227,
      "Ğ": 228,
      "ğ": 229,
      "Ġ": 230,
      "ġ": 231,
      "Ģ": 232,
      "ģ": 233,
      "Ĥ": 234,
      "ĥ": 235,
      "Ħ": 236,
      "ħ": 237,
      "Ĩ": 238,
      "ĩ": 239,
      "Ī": 240,
      "ī": 241,
      "Ĭ": 242,
      "ĭ": 243,
      "Į": 244,
      "į": 245,
      "İ": 246,
      "ı": 247,
      "Ĳ": 248,
      "ĳ": 249,
      "Ĵ": 250,
      "ĵ": 251,
      "Ķ": 252,
      "ķ": 253,
      "ĸ": 254,
      "Ĺ": 255,
      "ĺ": 256,
      "Ļ": 257,
      "ļ": 258,
      "Ľ": 259,
      "ľ": 260,
      "Ŀ": 261,
      "ŀ": 262,
      "Ł": 263,
      "ł": 264,
      "Ń": 265,
      "Ġt": 266,
      "he": 267,
      "Ġa": 268,
      "in": 269,
      "Ġs": 270,
      "Ġw": 271,
      "Ġthe": 272,
      "re": 273,
      "Ġo": 274,
      "ou": 275,
      "Ġb": 276,
      "Ġm": 277,
      "ed": 278,
      "nd": 279,
      "ha": 280,
      "ing": 281,
      "er": 282,
      "Ġf": 283,
      "ĠI": 284,
      "Ġc": 285,
      "it": 286,
      "Ġto": 287,
      "is": 288,
      "Ġd": 289,
      "en": 290,
      "Ġl": 291,
      "ll": 292,
      "on": 293,
      "or": 294,
      "Ġn": 295,
      "as": 296,
      "Ġp": 297,
      "Ġand": 298,
      "es": 299,
      "Ġh": 300,
      "Ġof": 301,
      "ar": 302,
      "an": 303,
      "Ġhe": 304,
      "Ġin": 305,
      "Ġg": 306,
      "at": 307,
      "om": 308,
      "Ġha": 309,
      "ow": 310,
      "hat": 311,
      "ut": 312,
      "ĠT": 313,
      "Ġbe": 314,
      "Ġy": 315,
      "Ġe": 316,
      "Ġwas": 317,
      "le": 318,
      "ld": 319,
      "Ġth": 320,
      "``": 321,
      "''": 322,
      "ot": 323,
      "Ġ``": 324,
      "st": 325,
      "ve": 326,
      "ac": 327,
      "Ġyou": 328,
      "id": 329,
      "Ġon": 330,
      "gh": 331,
      "Ġit": 332,
      "ly": 333,
      "et": 334,
      "ic": 335,
      "âĢ": 336,
      "Ġst": 337,
      "im": 338,
      "ĠâĢ": 339,
      "Ġre": 340,
      "ay": 341,
      "Ġu": 342,
      "Ġmy": 343,
      "Ġthat": 344,
      "al": 345,
      "ver": 346,
      "ĠThe": 347,
      "se": 348,
      "ĠH": 349,
      "ĠA": 350,
      "Ġhis": 351,
      "Ġwe": 352,
      "oo": 353,
      "ir": 354,
      "ent": 355,
      "Ġr": 356,
      "ad": 357,
      "Ġme": 358,
      "ke": 359,
      "Ġas": 360,
      "ĠS": 361,
      "ght": 362,
      "Ġfor": 363,
      "ur": 364,
      "ould": 365,
      "ith": 366,
      "ion": 367,
      "am": 368,
      "ĠW": 369,
      "Ġli": 370,
      "Ġwith": 371,
      "Ġan": 372,
      "all": 373,
      "Ġk": 374,
      "..": 375,
      "Ġdo": 376,
      "Ġhad": 377,
      "'t": 378,
      "'s": 379,
      "Ġat": 380,
      "Ġfr": 381,
      "Ġher": 382,
      "Ġse": 383,
      "ill": 384,
      "Ġis": 385,
      ".''": 386,
      "her": 387,
      "ĠHe": 388,
      "ro": 389,
      "pp": 390,
      "ce": 391,
      "ore": 392,
      "il": 393,
      "Ġnot": 394,
      "ĠM": 395,
      "Ġne": 396,
      "Ġbut": 397,
      "ight": 398,
      "ter": 399,
      "ain": 400,
      "ust": 401,
      "red": 402,
      "ch": 403,
      "Ġwh": 404,
      "ack": 405,
      "Ġj": 406,
      "if": 407,
      "Ġsh": 408,
      "ome": 409,
      "Ġout": 410,
      "Ġthis": 411,
      "ked": 412,
      "rou": 413,
      "Ġup": 414,
      "ct": 415,
      "ĠB": 416,
      "Ġkn": 417,
      "ĠâĢĻ": 418,
      "Ġfe": 419,
      "un": 420,
      "hing": 421,
      "Ġfrom": 422,
      "Ġhave": 423,
      "Ġso": 424,
      "Ġhim": 425,
      "Ġde": 426,
      "one": 427,
      "Ġsa": 428,
      "Ġall": 429,
      "ri": 430,
      "ge": 431,
      "ant": 432,
      "um": 433,
      "Ġ*": 434,
      "ĠY": 435,
      "king": 436,
      "art": 437,
      "ĠIt": 438,
      "Ġshe": 439,
      "out": 440,
      "op": 441,
      "ind": 442,
      "ess": 443,
      "ra": 444,
      "Ġwor": 445,
      "Ġthey": 446,
      "us": 447,
      "Ġint": 448,
      "Ġal": 449,
      "Ġ-": 450,
      "Ġwere": 451,
      "ĠN": 452,
      "Ġle": 453,
      "Ġcould": 454,
      "ĠâĢľ": 455,
      "ĠD": 456,
      "ĠâĢĿ": 457,
      "ie": 458,
      "Ġsp": 459,
      "Ġwould": 460,
      "Ġloo": 461,
      "Ġgo": 462,
      "Ġwhat": 463,
      "ard": 464,
      "ĠC": 465,
      "Ġab": 466,
      "ally": 467,
      "Ġone": 468,
      "ast": 469,
      "Ġlike": 470,
      "own": 471,
      "ck": 472,
      "Ġsu": 473,
      "Ġwhe": 474,
      "em": 475,
      "Ġcon": 476,
      "Ġman": 477,
      "Ġv": 478,
      "ers": 479,
      "ood": 480,
      "Ġjust": 481,
      "ĠO": 482,
      "Ġno": 483,
      "est": 484,
      "Ġex": 485,
      "ul": 486,
      "lo": 487,
      "very": 488,
      "qu": 489,
      "Ġinto": 490,
      "Ġtim": 491,
      "?''": 492,
      "fe": 493,
      "hed": 494,
      "Ġback": 495,
      "Ġdid": 496,
      "and": 497,
      "ig": 498,
      "ace": 499,
      "el": 500,
      "ide": 501,
      "ry": 502,
      "Ġare": 503,
      "ist": 504,
      "ell": 505,
      "han": 506,
      "ame": 507,
      "ab": 508,
      "ation": 509,
      "ĠJ": 510,
      "ss": 511,
      "Ġknow": 512,
      "way": 513,
      "ĠYou": 514,
      "Ġthem": 515,
      "ong": 516,
      "Ġyour": 517,
      "ĠE": 518,
      "Ġpl": 519,
      "ĠG": 520,
      "Ġor": 521,
      "Ġag": 522,
      "lf": 523,
      "nt": 524,
      "Ġtime": 525,
      "ven": 526,
      "ake": 527,
      "ĠF": 528,
      "Ġbl": 529,
      "Ġcom": 530,
      "ĠP": 531,
      "ate": 532,
      "ep": 533,
      "Ġsome": 534,
      "ĠL": 535,
      "Ġsm": 536,
      "ear": 537,
      "Ġ--": 538,
      "Ġany": 539,
      "Ġsaid": 540,
      "Ġtheir": 541,
      "pt": 542,
      "Ġthere": 543,
      "ice": 544,
      "od": 545,
      "Ġbeen": 546,
      "Ġdown": 547,
      "...": 548,
      "Ġget": 549,
      "ĠShe": 550,
      "Ġro": 551,
      "Ġover": 552,
      "Ġsc": 553,
      "round": 554,
      "Ġby": 555,
      "Ġco": 556,
      "ous": 557,
      "au": 558,
      "Ġcan": 559,
      "Ġabout": 560,
      "Ġpo": 561,
      "ive": 562,
      "__": 563,
      "are": 564,
      "ure": 565,
      "ag": 566,
      "Ġey": 567,
      "ort": 568,
      "urn": 569,
      "Ġtoo": 570,
      "Ġlo": 571,
      "Ġwhen": 572,
      "Ġhand": 573,
      "Ġmo": 574,
      "Ġus": 575,
      "Ġnow": 576,
      "Ġthou": 577,
      "Ġif": 578,
      "ick": 579,
      "ther": 580,
      "Ġmore": 581,
      "Ġwho": 582,
      "Ġoff": 583,
      "our": 584,
      "ĠR": 585,
      "Ġsee": 586,
      "ity": 587,
      "reat": 588,
      "Ġun": 589,
      "ap": 590,
      "fore": 591,
      "ak": 592,
      "self": 593,
      "ound": 594,
      "Ġqu": 595,
      "'m": 596,
      "ine": 597,
      "Ġevery": 598,
      "Ġagain": 599,
      "ull": 600,
      "th": 601,
      "Ġsl": 602,
      "ink": 603,
      "Ġpe": 604,
      "itt": 605,
      "ies": 606,
      "ass": 607,
      "Ġonly": 608,
      "Ġeyes": 609,
      "Ġpro": 610,
      "Ġwill": 611,
      "Ġen": 612,
      "Ġbefore": 613,
      "other": 614,
      "ĠWe": 615,
      "rough": 616,
      "ru": 617,
      "ĠAnd": 618,
      "Ġother": 619,
      "Ġch": 620,
      "Ġcl": 621,
      "ile": 622,
      "ĠBut": 623,
      "omet": 624,
      "Ġthrough": 625,
      "Ġday": 626,
      "Ġwant": 627,
      "Ġthen": 628,
      "ved": 629,
      "ite": 630,
      "ĠTh": 631,
      "Ġbr": 632,
      "ire": 633,
      "led": 634,
      "pped": 635,
      "Ġeven": 636,
      "ft": 637,
      "!''": 638,
      "fter": 639,
      "nder": 640,
      "te": 641,
      "ip": 642,
      "Ġhow": 643,
      "Ġaround": 644,
      "Ġar": 645,
      "ĠThey": 646,
      "Ġour": 647,
      "Ġthing": 648,
      "Ġhere": 649,
      "Ġhead": 650,
      "ving": 651,
      "Ġfl": 652,
      "ect": 653,
      "Ġpre": 654,
      ",''": 655,
      "ople": 656,
      "ol": 657,
      "ade": 658,
      "Ġway": 659,
      "Ġam": 660,
      "ĠWhat": 661,
      "iz": 662,
      "Ġlooked": 663,
      "Ġtw": 664,
      "irst": 665,
      "act": 666,
      "dd": 667,
      "ears": 668,
      "ach": 669,
      "Ġthan": 670,
      "Ġturn": 671,
      "omething": 672,
      "ks": 673,
      "Ġnever": 674,
      "Ġlong": 675,
      "Ġbec": 676,
      "Ġim": 677,
      "Ġpeople": 678,
      "ward": 679,
      "Ġsay": 680,
      "ble": 681,
      "Ġthought": 682,
      "Ġstart": 683,
      "thing": 684,
      "Ġstill": 685,
      "Ġfirst": 686,
      "Ġgot": 687,
      "ber": 688,
      "Ġrem": 689,
      "Ġexp": 690,
      "Ġlife": 691,
      "Ġgr": 692,
      "Ġpr": 693,
      "age": 694,
      "ath": 695,
      "ment": 696,
      "Ġac": 697,
      "Ġright": 698,
      "Ġdoor": 699,
      "Ġgoing": 700,
      "Ġcont": 701,
      "able": 702,
      "Ġtr": 703,
      "ĠMy": 704,
      "Ġbeg": 705,
      "Ġsomething": 706,
      "ting": 707,
      "Ġmu": 708,
      "ew": 709,
      "ose": 710,
      "Ġface": 711,
      "os": 712,
      "Ġsw": 713,
      "'re": 714,
      "ond": 715,
      "Ġgu": 716,
      "ark": 717,
      "ave": 718,
      "'d": 719,
      "Ġthink": 720,
      "wn": 721,
      "ered": 722,
      "Ġdis": 723,
      "ree": 724,
      "Ġwat": 725,
      "Ġbo": 726,
      "Ġcr": 727,
      "ated": 728,
      "ff": 729,
      "Ġneed": 730,
      "ild": 731,
      "ence": 732,
      "Ġsha": 733,
      "uck": 734,
      "ans": 735,
      "Ġop": 736,
      "ves": 737,
      "ĠNo": 738,
      "Ġaway": 739,
      "ious": 740,
      "Ġhapp": 741,
      "Ġafter": 742,
      "ared": 743,
      "Ġfeel": 744,
      "ough": 745,
      "Ġroom": 746,
      "Ġworld": 747,
      "Ġmade": 748,
      "ning": 749,
      "Ġcomp": 750,
      "'ve": 751,
      "ened": 752,
      "Ġgl": 753,
      "ĠThat": 754,
      "Ġwal": 755,
      "Ġhas": 756,
      "lt": 757,
      "Ġclo": 758,
      "ause": 759,
      "ue": 760,
      "ittle": 761,
      "ĠThis": 762,
      "ied": 763,
      "Ġca": 764,
      "Ġmuch": 765,
      "Ġmake": 766,
      "Ġte": 767,
      "Ġke": 768,
      "Ġlast": 769,
      "Ġfo": 770,
      "____": 771,
      "Ġyears": 772,
      "Ġunder": 773,
      "be": 774,
      "ways": 775,
      "Ġseem": 776,
      "int": 777,
      "Ġlittle": 778,
      "Ġcha": 779,
      "ĠThere": 780,
      "Ġapp": 781,
      "ream": 782,
      "Ġlight": 783,
      "Ġvo": 784,
      "Ġold": 785,
      "Ġlet": 786,
      "Ġwhere": 787,
      "Ġshould": 788,
      "ĠK": 789,
      "Ġspe": 790,
      "Ġlook": 791,
      "ody": 792,
      "Ġhum": 793,
      "Ġche": 794,
      "Ġreal": 795,
      "Ġgood": 796,
      "Ġknew": 797,
      "Ġnew": 798,
      "ich": 799,
      "ched": 800,
      "ase": 801,
      "ĠAs": 802,
      "Ġfew": 803,
      "Ġcall": 804,
      "Ġwr": 805,
      "ĠWh": 806,
      "Ġwa": 807,
      "Ġtwo": 808,
      "Ġleft": 809,
      "Ġmom": 810,
      "Ġdes": 811,
      "side": 812,
      "ost": 813,
      "ne": 814,
      "ried": 815,
      "xt": 816,
      "ng": 817,
      "Ġbet": 818,
      "'ll": 819,
      "ather": 820,
      "ions": 821,
      "ud": 822,
      "sp": 823,
      "Ġend": 824,
      "Ġreally": 825,
      "Ġfin": 826,
      "ance": 827,
      "Ġ1": 828,
      "ĠSo": 829,
      "ĠIn": 830,
      "ps": 831,
      "ady": 832,
      "Ġtook": 833,
      "ish": 834,
      "Ġbeing": 835,
      "Ġrep": 836,
      "Ġits": 837,
      "ling": 838,
      "Ġsur": 839,
      "ds": 840,
      "Ġalways": 841,
      "Ġsec": 842,
      "Ġtake": 843,
      "aking": 844,
      "Ġem": 845,
      "ily": 846,
      "Ġfelt": 847,
      "per": 848,
      "Ġcar": 849,
      "ory": 850,
      "Ġcame": 851,
      "Ġsk": 852,
      "Ġtell": 853,
      "uc": 854,
      "gg": 855,
      "Ġtry": 856,
      "iss": 857,
      "ĠU": 858,
      "Ġcou": 859,
      "ens": 860,
      "ĠHis": 861,
      "orm": 862,
      "Ġvoice": 863,
      "ign": 864,
      "les": 865,
      "Ġarm": 866,
      "hen": 867,
      "Ġturned": 868,
      "Ġcome": 869,
      "ress": 870,
      "Ġho": 871,
      "Ġjo": 872,
      "ise": 873,
      "Ġper": 874,
      "Ġnight": 875,
      "Ġwell": 876,
      "ang": 877,
      "ness": 878,
      "Ġmoment": 879,
      "Ġhar": 880,
      "ook": 881,
      "Ġanother": 882,
      "less": 883,
      "ont": 884,
      "Ġhel": 885,
      "Ġpart": 886,
      "Ġown": 887,
      "Ġsaw": 888,
      "Ġwar": 889,
      "ty": 890,
      "Ġfind": 891,
      "Ġent": 892,
      "Ġchan": 893,
      "ted": 894,
      "Ġmost": 895,
      "Ġever": 896,
      "Ġstr": 897,
      "Ġdec": 898,
      "Ġbu": 899,
      "Ġthose": 900,
      "ail": 901,
      "ord": 902,
      "Ġstarted": 903,
      "Ġbegan": 904,
      "Ġasked": 905,
      "Ġwhich": 906,
      "Ġwork": 907,
      "Ġbecause": 908,
      "ross": 909,
      "Ġmyself": 910,
      "here": 911,
      "ful": 912,
      "hes": 913,
      "ually": 914,
      "ever": 915,
      "Ġkill": 916,
      "Ġact": 917,
      "Ġdr": 918,
      "Ġnothing": 919,
      "ah": 920,
      "Ġgra": 921,
      "Ġenough": 922,
      "ower": 923,
      "Ġnext": 924,
      "Ġsmall": 925,
      "Ġwent": 926,
      "bb": 927,
      "Ġsure": 928,
      "ĠSt": 929,
      "Ġthings": 930,
      "oth": 931,
      "Ġtoward": 932,
      "ating": 933,
      "Ġatt": 934,
      "ary": 935,
      "ial": 936,
      "Ġ**": 937,
      "igh": 938,
      "Ġfound": 939,
      "Ġmind": 940,
      "ons": 941,
      "Ġ2": 942,
      "Ġwhile": 943,
      "hind": 944,
      "Ġhands": 945,
      "Ġpull": 946,
      "Ġhome": 947,
      "Ġtal": 948,
      "Ġput": 949,
      "Ġwhy": 950,
      "Ġwo": 951,
      "owed": 952,
      "get": 953,
      "Ġthough": 954,
      "iend": 955,
      "Ġdark": 956,
      "ool": 957,
      "ĠHow": 958,
      "av": 959,
      "ĠDo": 960,
      "Ġfriend": 961,
      "Ġbody": 962,
      "Ġhelp": 963,
      "Ġremem": 964,
      "Ġad": 965,
      "Ġbel": 966,
      "ren": 967,
      "Ġsound": 968,
      "Ġunt": 969,
      "Ġmon": 970,
      "Ġvery": 971,
      "Ġbehind": 972,
      "Ġph": 973,
      "Ġ)": 974,
      "ince": 975,
      "Ġwait": 976,
      "Ġonce": 977,
      "Ġcle": 978,
      "Ġimp": 979,
      "orn": 980,
      "ĠAn": 981,
      "Ġmay": 982,
      "Ġgre": 983,
      "ars": 984,
      "Ġsame": 985,
      "aring": 986,
      "Ġplan": 987,
      "Ġrec": 988,
      "Ġopen": 989,
      "Ġdoes": 990,
      "ors": 991,
      "iv": 992,
      "Ġmin": 993,
      "Ġanything": 994,
      "Ġthese": 995,
      "Ġrun": 996,
      "ĠNot": 997,
      "Ġplace": 998,
      "Ġbit": 999,
      "Ġmany": 1000,
      "ĠIf": 1001,
      "Ġhuman": 1002,
      "ced": 1003,
      "Ġside": 1004,
      "Ġheard": 1005,
      "Ġ(": 1006,
      "Ġchild": 1007,
      "ĠWell": 1008,
      "day": 1009,
      "Ġflo": 1010,
      "umb": 1011,
      "Ġmat": 1012,
      "Ġsat": 1013,
      "Ġsil": 1014,
      "Ġuntil": 1015,
      "ching": 1016,
      "ple": 1017,
      "Ġeach": 1018,
      "Ġwind": 1019,
      "Ġlooking": 1020,
      "Ġhard": 1021,
      "Ġsecond": 1022,
      "Ġpoint": 1023,
      "Ġwom": 1024,
      "Ġmet": 1025,
      "Ġpass": 1026,
      "Ġtold": 1027,
      "Ġslow": 1028,
      "Ġfam": 1029,
      "Ġkeep": 1030,
      "Ġclos": 1031,
      "Ġfront": 1032,
      "ife": 1033,
      "Ġhimself": 1034,
      "Ġwanted": 1035,
      "most": 1036,
      "ys": 1037,
      "med": 1038,
      "ĠOh": 1039,
      "Ġel": 1040,
      "Ġseemed": 1041,
      "aught": 1042,
      "ouse": 1043,
      "air": 1044,
      "ned": 1045,
      "ged": 1046,
      "ical": 1047,
      "Ġname": 1048,
      "owing": 1049,
      "Ġgreat": 1050,
      "sh": 1051,
      "Ġlove": 1052,
      "Ġquick": 1053,
      "Ġstre": 1054,
      "up": 1055,
      "Ġblood": 1056,
      "Ġgir": 1057,
      "ope": 1058,
      "ump": 1059,
      "az": 1060,
      "ict": 1061,
      "Ġblack": 1062,
      "Ġstand": 1063,
      "Ġset": 1064,
      "Ġmust": 1065,
      "Ġrest": 1066,
      "Ġpers": 1067,
      "Ġagainst": 1068,
      "Ġste": 1069,
      "ult": 1070,
      "fect": 1071,
      "vent": 1072,
      "Ġbreat": 1073,
      "**": 1074,
      "oc": 1075,
      "Ġsim": 1076,
      "Ġpain": 1077,
      "ank": 1078,
      "Ġtowards": 1079,
      "ĠWhen": 1080,
      "Ġmean": 1081,
      "ĠV": 1082,
      "we": 1083,
      "ible": 1084,
      "rent": 1085,
      "Ġacross": 1086,
      "aw": 1087,
      "Ġstood": 1088,
      "Ġsn": 1089,
      "Ġair": 1090,
      "ĠThen": 1091,
      "ia": 1092,
      "Ġtried": 1093,
      "arth": 1094,
      "Ġcur": 1095,
      "Ġeverything": 1096,
      "Ġfar": 1097,
      "ĠGod": 1098,
      "Ġdif": 1099,
      "Ġcare": 1100,
      "Ġread": 1101,
      "Ġalmost": 1102,
      "Ġwalked": 1103,
      "Ġhear": 1104,
      "Ġremember": 1105,
      "used": 1106,
      "Ġbed": 1107,
      "vel": 1108,
      "ĠJo": 1109,
      "Ġwall": 1110,
      "arly": 1111,
      "ĠAll": 1112,
      "Ġcour": 1113,
      "Ġret": 1114,
      "Ġsto": 1115,
      "Ġgi": 1116,
      "ying": 1117,
      "Ġcontin": 1118,
      "Ġhu": 1119,
      "Ġsince": 1120,
      "bs": 1121,
      "Ġtrying": 1122,
      "Ġkind": 1123,
      "ings": 1124,
      "Ġred": 1125,
      "ĠHer": 1126,
      "Ġsomeone": 1127,
      "ĠBe": 1128,
      "Ġsmil": 1129,
      "Ġtra": 1130,
      "...''": 1131,
      "ĠAl": 1132,
      "Ġplay": 1133,
      "Ġperson": 1134,
      "Ġdead": 1135,
      "Ġgirl": 1136,
      "Ġhour": 1137,
      "Ġminut": 1138,
      "Ġstop": 1139,
      "ows": 1140,
      "Ġinst": 1141,
      "Ġscream": 1142,
      "oke": 1143,
      "Ġsupp": 1144,
      "Ġcomm": 1145,
      "ient": 1146,
      "ident": 1147,
      "ove": 1148,
      "Ġass": 1149,
      "00": 1150,
      "________": 1151,
      "ung": 1152,
      "Ġlau": 1153,
      "iet": 1154,
      "Ġdra": 1155,
      "Ġbetter": 1156,
      "ably": 1157,
      "ix": 1158,
      "Ġseen": 1159,
      "Ġground": 1160,
      "ater": 1161,
      "Ġacc": 1162,
      "Ġwords": 1163,
      "ert": 1164,
      "Ġbre": 1165,
      "Ġinter": 1166,
      "Ġdone": 1167,
      "ier": 1168,
      "pping": 1169,
      "ached": 1170,
      "ĠWhy": 1171,
      "Ġmen": 1172,
      "iver": 1173,
      "Ġwithout": 1174,
      "Ġres": 1175,
      "Ġsle": 1176,
      "Ġconf": 1177,
      "Ġpower": 1178,
      "ready": 1179,
      "ised": 1180,
      "Ġwoman": 1181,
      "âĢ¦": 1182,
      "Ġunderst": 1183,
      "so": 1184,
      "ized": 1185,
      "Ġmight": 1186,
      "dden": 1187,
      "Ġfall": 1188,
      "Ġdeath": 1189,
      "ĠNow": 1190,
      "Ġinc": 1191,
      "ations": 1192,
      "ike": 1193,
      "Ġkid": 1194,
      "Ġbelie": 1195,
      "Ġrel": 1196,
      "Ġalready": 1197,
      "ense": 1198,
      "lease": 1199,
      "Ġheart": 1200,
      "ces": 1201,
      "Ġhouse": 1202,
      "Ġbest": 1203,
      "Ġaw": 1204,
      "Ġfinally": 1205,
      "Ġslowly": 1206,
      "Ġtru": 1207,
      "Ġyoung": 1208,
      "ash": 1209,
      "ual": 1210,
      "Ġelse": 1211,
      "outh": 1212,
      "ets": 1213,
      "ĠEvery": 1214,
      "Ġhair": 1215,
      "Ġfloor": 1216,
      "mer": 1217,
      "Ġdays": 1218,
      "Ġfoll": 1219,
      "Ġhold": 1220,
      "Ġdro": 1221,
      "Ġsmile": 1222,
      "icked": 1223,
      "Ġdeep": 1224,
      "ction": 1225,
      "Ġser": 1226,
      "ained": 1227,
      "Ġwee": 1228,
      "Ġgive": 1229,
      "rew": 1230,
      "Ġbig": 1231,
      "Ġter": 1232,
      "Ġthree": 1233,
      "Ġyet": 1234,
      "Ġcreat": 1235,
      "ĠWith": 1236,
      "ount": 1237,
      "ully": 1238,
      "Ġresp": 1239,
      "akes": 1240,
      "Ġdiffe": 1241,
      "ĠOn": 1242,
      "ĠAfter": 1243,
      "ĠDe": 1244,
      "ately": 1245,
      "ib": 1246,
      "Ġbro": 1247,
      "ĠJust": 1248,
      "ott": 1249,
      "Ġfire": 1250,
      "cept": 1251,
      "ian": 1252,
      "ided": 1253,
      "Ġquest": 1254,
      "Ġfell": 1255,
      "Ġfore": 1256,
      "Ġpast": 1257,
      "Ġboth": 1258,
      "ger": 1259,
      "Ġwater": 1260,
      "Ġcourse": 1261,
      "Ġdist": 1262,
      "ĠFor": 1263,
      "der": 1264,
      "Ġago": 1265,
      "Ġmother": 1266,
      "pe": 1267,
      "ĠAt": 1268,
      "arent": 1269,
      "uff": 1270,
      "ub": 1271,
      "Ġdoing": 1272,
      "to": 1273,
      "Ġi": 1274,
      "Ġleast": 1275,
      "ired": 1276,
      "Ġgone": 1277,
      "sw": 1278,
      "Ġsho": 1279,
      "cess": 1280,
      "itting": 1281,
      "Ġgetting": 1282,
      "Ġused": 1283,
      "eah": 1284,
      "Ġve": 1285,
      "Ġeveryone": 1286,
      "Ġhappened": 1287,
      "Ġboy": 1288,
      "Ġfig": 1289,
      "Ġpulled": 1290,
      "Ġsun": 1291,
      "Ġbad": 1292,
      "Ġcalled": 1293,
      "ĠYes": 1294,
      "orry": 1295,
      "Ġfing": 1296,
      "Ġsuch": 1297,
      "Ġgave": 1298,
      "its": 1299,
      "Ġran": 1300,
      "ished": 1301,
      "Ġfeet": 1302,
      "ĠCh": 1303,
      "Ġmove": 1304,
      "ĠOne": 1305,
      "Ġhell": 1306,
      "Ġlar": 1307,
      "Ġinside": 1308,
      "Ġwhite": 1309,
      "ins": 1310,
      "Ġmor": 1311,
      "Ġfather": 1312,
      "aced": 1313,
      "Ġcoll": 1314,
      "ject": 1315,
      "Ġmiss": 1316,
      "Ġrepl": 1317,
      "Ġunderstand": 1318,
      "ition": 1319,
      "Ġmem": 1320,
      "Ġuse": 1321,
      "Ġ3": 1322,
      "idd": 1323,
      "Ġcoming": 1324,
      "man": 1325,
      "ically": 1326,
      "Ġmouth": 1327,
      "Ġquickly": 1328,
      "Ġsoon": 1329,
      "row": 1330,
      "Ġtable": 1331,
      "Ġyear": 1332,
      "pr": 1333,
      "Ġbar": 1334,
      "rie": 1335,
      "ween": 1336,
      "Ġlot": 1337,
      "ee": 1338,
      "Ġstopped": 1339,
      "ued": 1340,
      "Ġansw": 1341,
      "aut": 1342,
      "ime": 1343,
      "Ġdri": 1344,
      "inking": 1345,
      "gs": 1346,
      "ason": 1347,
      "Ġgun": 1348,
      "ret": 1349,
      "gether": 1350,
      "no": 1351,
      "Ġinf": 1352,
      "Ġcomple": 1353,
      "ĠMay": 1354,
      "Ġdifferent": 1355,
      "ures": 1356,
      "Ġhalf": 1357,
      "ured": 1358,
      "att": 1359,
      "ĠMr": 1360,
      "Ġland": 1361,
      "Ġfight": 1362,
      "Ġopened": 1363,
      "Ġphone": 1364,
      "Ġleave": 1365,
      "ange": 1366,
      "Ġdie": 1367,
      "ering": 1368,
      "Ġeye": 1369,
      "Ġvis": 1370,
      "Ġcold": 1371,
      "Ġfamily": 1372,
      "ening": 1373,
      "Ġexc": 1374,
      "ames": 1375,
      "Ġsy": 1376,
      "Ġbetween": 1377,
      "Ġtri": 1378,
      "Ġtimes": 1379,
      "hn": 1380,
      "ited": 1381,
      "Ġdam": 1382,
      "ize": 1383,
      "als": 1384,
      "ined": 1385,
      "Ġminutes": 1386,
      "ushed": 1387,
      "ddenly": 1388,
      "Ġbreath": 1389,
      "Ġfill": 1390,
      "Ġcat": 1391,
      "ale": 1392,
      "aster": 1393,
      "ere": 1394,
      "Ġclose": 1395,
      "Ġmonth": 1396,
      "Ġhigh": 1397,
      "Ġmatter": 1398,
      "Ġide": 1399,
      "Ġtogether": 1400,
      "Ġsleep": 1401,
      "ucking": 1402,
      "og": 1403,
      "Ġra": 1404,
      "ently": 1405,
      "Ġsign": 1406,
      "bably": 1407,
      "Ġlost": 1408,
      "Ġdream": 1409,
      "Ġgen": 1410,
      "Ġhor": 1411,
      "Ġoutside": 1412,
      "Ġcra": 1413,
      "sel": 1414,
      "Ġdon": 1415,
      "tered": 1416,
      "Ġob": 1417,
      "ĠJohn": 1418,
      "oud": 1419,
      "Ġwhole": 1420,
      "Ġlater": 1421,
      "log": 1422,
      "Ġjob": 1423,
      "Ġap": 1424,
      "ird": 1425,
      "ush": 1426,
      "Ġsou": 1427,
      "Ġsing": 1428,
      "Ġable": 1429,
      "Ġcount": 1430,
      "oney": 1431,
      "Ġcut": 1432,
      "Ġlist": 1433,
      "ead": 1434,
      "Ġsit": 1435,
      "Ġsqu": 1436,
      "ror": 1437,
      "pl": 1438,
      "Ġlive": 1439,
      "ates": 1440,
      "ken": 1441,
      "ny": 1442,
      "Ġhit": 1443,
      "cked": 1444,
      "Ġwrong": 1445,
      "ither": 1446,
      "Ġentire": 1447,
      "Ġheld": 1448,
      "Ġspec": 1449,
      "Ġsmiled": 1450,
      "Ġposs": 1451,
      "ĠSome": 1452,
      "Ġyell": 1453,
      "Ġguy": 1454,
      "Ġbuild": 1455,
      "Ġeas": 1456,
      "Ġcons": 1457,
      "....": 1458,
      "ner": 1459,
      "iting": 1460,
      "fully": 1461,
      "Ġmess": 1462,
      "Ġreturn": 1463,
      "Ġstep": 1464,
      "Ġshit": 1465,
      "Ġpat": 1466,
      "Ġsch": 1467,
      "Ġonto": 1468,
      "Ġtoday": 1469,
      "Ġfun": 1470,
      "Ġform": 1471,
      "ĠTo": 1472,
      "Ġmaybe": 1473,
      "Ġhours": 1474,
      "Ġstay": 1475,
      "Ġhur": 1476,
      "Ġswe": 1477,
      "Ġalso": 1478,
      "Ġcre": 1479,
      "Ġsent": 1480,
      "Ġref": 1481,
      "Ġreg": 1482,
      "Ġfriends": 1483,
      "Ġdisc": 1484,
      "Ġhope": 1485,
      "Ġbelieve": 1486,
      "Ġglass": 1487,
      "Ġbeaut": 1488,
      "Ġpres": 1489,
      "ĠFr": 1490,
      "Ġmar": 1491,
      "Ġbus": 1492,
      "Ġactually": 1493,
      "ph": 1494,
      "Ġfuck": 1495,
      "The": 1496,
      "Ġchar": 1497,
      "ines": 1498,
      "where": 1499,
      "ipped": 1500,
      "ories": 1501,
      "Ġlarge": 1502,
      "ts": 1503,
      "bbed": 1504,
      "Ġind": 1505,
      "Ġmorning": 1506,
      "iously": 1507,
      "Ġfull": 1508,
      "ĠMaybe": 1509,
      "Ġguess": 1510,
      "Ġanyone": 1511,
      "Ġdest": 1512,
      "Ġship": 1513,
      "Ġupon": 1514,
      "Ġlead": 1515,
      "Ġalone": 1516,
      "Ġlea": 1517,
      "ped": 1518,
      "Ġsays": 1519,
      "fort": 1520,
      "iced": 1521,
      "dded": 1522,
      "Ġwhis": 1523,
      "ĠRe": 1524,
      "Ġprobably": 1525,
      "Ġstory": 1526,
      "Ġneeded": 1527,
      "Ġask": 1528,
      "Ġwindow": 1529,
      "vers": 1530,
      "ield": 1531,
      "Ġsub": 1532,
      "ax": 1533,
      "Ġfear": 1534,
      "Ġfact": 1535,
      "Ġarms": 1536,
      "ene": 1537,
      "Ġcor": 1538,
      "Ġcry": 1539,
      "aken": 1540,
      "Ġdem": 1541,
      "Ġalong": 1542,
      "Ġinv": 1543,
      "ention": 1544,
      "kay": 1545,
      "Ġexpl": 1546,
      "Ġchair": 1547,
      "Ġothers": 1548,
      "ected": 1549,
      "body": 1550,
      "Ġreached": 1551,
      "app": 1552,
      "Ġwife": 1553,
      "Ġcol": 1554,
      "Ġes": 1555,
      "Ġmaking": 1556,
      "alm": 1557,
      "Ġkept": 1558,
      "Ġpur": 1559,
      "Ġquite": 1560,
      "Ġwalk": 1561,
      "Ġtop": 1562,
      "Ġfeeling": 1563,
      "Ġpret": 1564,
      "Ġschool": 1565,
      "Ġfree": 1566,
      "Ġstra": 1567,
      "Ġmag": 1568,
      "Ġforward": 1569,
      "Ġprom": 1570,
      "Ġblue": 1571,
      "Ġdire": 1572,
      "ster": 1573,
      "Ġbur": 1574,
      "ots": 1575,
      "Ġquiet": 1576,
      "Ġfucking": 1577,
      "Ġtre": 1578,
      "aces": 1579,
      "Ġtalk": 1580,
      "Ġlooks": 1581,
      "com": 1582,
      "Ġsorry": 1583,
      "ĠIs": 1584,
      "Ġdet": 1585,
      "aper": 1586,
      "Ġcity": 1587,
      "Ġfur": 1588,
      "Ġsky": 1589,
      "Ġdidn": 1590,
      "head": 1591,
      "Ġperfect": 1592,
      "ents": 1593,
      "Ġpol": 1594,
      "my": 1595,
      "Ġdecided": 1596,
      "Ġbegin": 1597,
      "ĠYeah": 1598,
      "ĠEarth": 1599,
      "ters": 1600,
      "Ġlonger": 1601,
      "Ġsoul": 1602,
      "osed": 1603,
      "irt": 1604,
      "Ġstared": 1605,
      "Ġna": 1606,
      "Ġcomplete": 1607,
      "iness": 1608,
      "iful": 1609,
      "Ġappro": 1610,
      "eared": 1611,
      "ĠSh": 1612,
      "Ġcontinued": 1613,
      "Ġskin": 1614,
      "Ġshort": 1615,
      "ience": 1616,
      "cc": 1617,
      "Ġpretty": 1618,
      "Ġbreak": 1619,
      "Ġlaugh": 1620,
      "Ġcorn": 1621,
      "br": 1622,
      "Ġfre": 1623,
      "Ġidea": 1624,
      "Ġplanet": 1625,
      "selves": 1626,
      "ten": 1627,
      "Ġexist": 1628,
      "Ġwatched": 1629,
      "Ġspeak": 1630,
      "Ġev": 1631,
      "io": 1632,
      "uring": 1633,
      "ĠOr": 1634,
      "Ġquestion": 1635,
      "Ġbecame": 1636,
      "anc": 1637,
      "tern": 1638,
      "Ġlear": 1639,
      "Ġless": 1640,
      "Ġroll": 1641,
      "Ġpie": 1642,
      "Ġslight": 1643,
      "Ġmeet": 1644,
      "Ġstru": 1645,
      "old": 1646,
      "Ġburn": 1647,
      "ĠUn": 1648,
      "ertain": 1649,
      "oy": 1650,
      "ards": 1651,
      "Ġreason": 1652,
      "Ġnear": 1653,
      "Ġ5": 1654,
      "Ġthr": 1655,
      "Ġwonder": 1656,
      "aid": 1657,
      "Ġtaking": 1658,
      "Ġhaving": 1659,
      "ze": 1660,
      "imes": 1661,
      "Ġwatch": 1662,
      "Ġlay": 1663,
      "Ġshout": 1664,
      "Ġdied": 1665,
      "Ġear": 1666,
      "Ġele": 1667,
      "room": 1668,
      "har": 1669,
      "Ġbecome": 1670,
      "Ġru": 1671,
      "Ġready": 1672,
      "ĠTH": 1673,
      "Ġshow": 1674,
      "ctor": 1675,
      "ĠWho": 1676,
      "me": 1677,
      "Ġcontro": 1678,
      "Ġcent": 1679,
      "Ġsort": 1680,
      "ities": 1681,
      "Ġchildren": 1682,
      "Ġshot": 1683,
      "ĠSu": 1684,
      "Ġimag": 1685,
      "Ġparent": 1686,
      "Ġabove": 1687,
      "Ġword": 1688,
      "rought": 1689,
      "lic": 1690,
      "Ġprot": 1691,
      "Ġsingle": 1692,
      "Ġconc": 1693,
      "Ġed": 1694,
      "Ġmoved": 1695,
      "amp": 1696,
      "reen": 1697,
      "Ġspace": 1698,
      "Ġbright": 1699,
      "aged": 1700,
      "Ġrunning": 1701,
      "ored": 1702,
      "Ġspoke": 1703,
      "Ġliving": 1704,
      "ains": 1705,
      "Ġchest": 1706,
      "Ġpassed": 1707,
      "Ġtrans": 1708,
      "ility": 1709,
      "Ġempt": 1710,
      "Ġtaken": 1711,
      "Ġtalking": 1712,
      "Ġfoot": 1713,
      "Ġins": 1714,
      "Ġsitting": 1715,
      "Ġwaiting": 1716,
      "Ġsurpr": 1717,
      "nding": 1718,
      "Ġpress": 1719,
      "read": 1720,
      "Ġbare": 1721,
      "empt": 1722,
      "OU": 1723,
      "ffe": 1724,
      "Ġmoney": 1725,
      "ric": 1726,
      "Ġbeautiful": 1727,
      "ging": 1728,
      "ane": 1729,
      "ony": 1730,
      "more": 1731,
      "ants": 1732,
      "aughter": 1733,
      "Ġson": 1734,
      "ific": 1735,
      "Ġfigure": 1736,
      "Ġpar": 1737,
      "Ġfour": 1738,
      "ndred": 1739,
      "Ġdef": 1740,
      "Ġsoft": 1741,
      "ob": 1742,
      "ER": 1743,
      "gged": 1744,
      "uth": 1745,
      "right": 1746,
      "Ġsense": 1747,
      "Ġstanding": 1748,
      "Ġhumans": 1749,
      "Ġbrought": 1750,
      "ply": 1751,
      "Ġdev": 1752,
      "Ġstrange": 1753,
      "Ġexact": 1754,
      "Ġreplied": 1755,
      "Ġsuddenly": 1756,
      "Ġbring": 1757,
      "Ġchange": 1758,
      "Ġtou": 1759,
      "sed": 1760,
      "ousand": 1761,
      "aining": 1762,
      "Ġfood": 1763,
      "otion": 1764,
      "Ġline": 1765,
      "Ġhall": 1766,
      "Ġ&": 1767,
      "Ġmonths": 1768,
      "Ġevent": 1769,
      "Ġ4": 1770,
      "cap": 1771,
      "Ġnoticed": 1772,
      "Ġsilence": 1773,
      "ones": 1774,
      "ĠYour": 1775,
      "ĠHell": 1776,
      "Ġblo": 1777,
      "Ġhop": 1778,
      "Ġnodded": 1779,
      "ists": 1780,
      "Ġweek": 1781,
      "umber": 1782,
      "''.": 1783,
      "ides": 1784,
      "mb": 1785,
      "Ġhappy": 1786,
      "ift": 1787,
      "Ġwarm": 1788,
      "Ġparents": 1789,
      "Ġfilled": 1790,
      "IN": 1791,
      "Ġgod": 1792,
      "res": 1793,
      "Ġanymore": 1794,
      "Ġbott": 1795,
      "Ġkilled": 1796,
      "Ġexper": 1797,
      "Ġsmell": 1798,
      "cks": 1799,
      "ator": 1800,
      "ien": 1801,
      "blem": 1802,
      "Ġstud": 1803,
      "haps": 1804,
      "ister": 1805,
      "Ġbrother": 1806,
      "ison": 1807,
      "antly": 1808,
      "stem": 1809,
      "Ġtears": 1810,
      "ton": 1811,
      "Ġwithin": 1812,
      "Ġpay": 1813,
      "Ġclosed": 1814,
      "ased": 1815,
      "Ġcrow": 1816,
      "Ġshad": 1817,
      "Ġthinking": 1818,
      "Ġcorner": 1819,
      "Ġheav": 1820,
      "Ġapart": 1821,
      "Ġstrong": 1822,
      "ular": 1823,
      "Ġrealized": 1824,
      "ments": 1825,
      "nded": 1826,
      "Ġmach": 1827,
      "eth": 1828,
      "Ġext": 1829,
      "iew": 1830,
      "ement": 1831,
      "oun": 1832,
      "ĠEven": 1833,
      "Ġhundred": 1834,
      "Ġnorm": 1835,
      "ghed": 1836,
      "unk": 1837,
      "Ġjump": 1838,
      "Ġfingers": 1839,
      "unch": 1840,
      "Ġthousand": 1841,
      "Ġtrue": 1842,
      ".'": 1843,
      "light": 1844,
      "Ġlate": 1845,
      "Ġyes": 1846,
      "Ġshut": 1847,
      "Ġwish": 1848,
      "iddle": 1849,
      "Ġseat": 1850,
      "Ġtown": 1851,
      "ches": 1852,
      "Ġcrack": 1853,
      "ĠMar": 1854,
      "Ġcaught": 1855,
      "Ġwood": 1856,
      "Ġforg": 1857,
      "Ġbox": 1858,
      "Ġmus": 1859,
      "Ġitself": 1860,
      "Ġproblem": 1861,
      "Ġclass": 1862,
      "Ġwalking": 1863,
      "Ġdisapp": 1864,
      "Ġnice": 1865,
      "Ġmil": 1866,
      "Ġempty": 1867,
      "Ġsurv": 1868,
      "Ġpaper": 1869,
      "Ġgreen": 1870,
      "Ġ20": 1871,
      "Ġloud": 1872,
      "Ġstaring": 1873,
      "Ġeither": 1874,
      "medi": 1875,
      "Ġknown": 1876,
      "any": 1877,
      "Ġcontrol": 1878,
      "ĠHey": 1879,
      "Ġwatching": 1880,
      "ĠThan": 1881,
      "Ġsuper": 1882,
      "Ġanswer": 1883,
      "by": 1884,
      "ĠOf": 1885,
      "ĠAr": 1886,
      "Ġcho": 1887,
      "ics": 1888,
      "Ġgrabbed": 1889,
      "Ġearth": 1890,
      "Ġweap": 1891,
      "Ġsimply": 1892,
      "Ġshook": 1893,
      "Ġdesk": 1894,
      "________________": 1895,
      "Ġmass": 1896,
      "Ġstreet": 1897,
      "Ġcloser": 1898,
      "sing": 1899,
      "Ġhappen": 1900,
      "ĠAre": 1901,
      "cy": 1902,
      "erest": 1903,
      "anger": 1904,
      "ometimes": 1905,
      "zy": 1906,
      "Ġsir": 1907,
      "ram": 1908,
      "Ġsystem": 1909,
      "aim": 1910,
      "Ġbook": 1911,
      "ighed": 1912,
      "Ġplease": 1913,
      "Ġfail": 1914,
      "Ġfive": 1915,
      "Ġlit": 1916,
      "bo": 1917,
      "erv": 1918,
      "Ġthemselves": 1919,
      "Ġgiven": 1920,
      "Ġshoulder": 1921,
      "anced": 1922,
      "erg": 1923,
      "ork": 1924,
      "Ġbuilding": 1925,
      "bed": 1926,
      "Ġwhatever": 1927,
      "Ġtor": 1928,
      "ffee": 1929,
      "ashed": 1930,
      "-''": 1931,
      "ract": 1932,
      "Ġsol": 1933,
      "Ġcertain": 1934,
      "ili": 1935,
      "Ġaf": 1936,
      "Ġscreen": 1937,
      "Ġoffice": 1938,
      "iding": 1939,
      "Ġones": 1940,
      "iny": 1941,
      "Ġmeant": 1942,
      "Ġsupposed": 1943,
      "vered": 1944,
      "ĠLet": 1945,
      "Ġfine": 1946,
      "aded": 1947,
      "Ġfollowed": 1948,
      "Ġloved": 1949,
      "cle": 1950,
      "ĠWhere": 1951,
      "ute": 1952,
      "Ġthro": 1953,
      "Ġcrowd": 1954,
      "Ġarri": 1955,
      "Ġdeal": 1956,
      "ices": 1957,
      "Ġholding": 1958,
      "Ġchance": 1959,
      "Ġneck": 1960,
      "Ġ]": 1961,
      "Ġstepped": 1962,
      "ci": 1963,
      "ising": 1964,
      "Ġworking": 1965,
      "cket": 1966,
      "ital": 1967,
      "ressed": 1968,
      "aned": 1969,
      "Ġwin": 1970,
      "Ġnat": 1971,
      "Ġty": 1972,
      "Ġattempt": 1973,
      "Ġseems": 1974,
      "apped": 1975,
      "Ġbarely": 1976,
      "Ġgrou": 1977,
      "Ġstraight": 1978,
      "Ġimmedi": 1979,
      "vern": 1980,
      "Ġgener": 1981,
      "ĠSe": 1982,
      "Ġcoffee": 1983,
      "Ġll": 1984,
      "Ġdarkness": 1985,
      "ĠPlease": 1986,
      "itch": 1987,
      "Ġbir": 1988,
      "ages": 1989,
      "airs": 1990,
      "Ġple": 1991,
      "Ġshar": 1992,
      "ĠBl": 1993,
      "Ġdrink": 1994,
      "Ġmiddle": 1995,
      "Ġlow": 1996,
      "ude": 1997,
      "Ġsighed": 1998,
      "Ġrather": 1999,
      "Ġuniver": 2000,
      "Ġseconds": 2001,
      "Ġopp": 2002,
      "ey": 2003,
      "Ġsever": 2004,
      "Ġexactly": 2005,
      "Ġpicked": 2006,
      "Ġclear": 2007,
      "ery": 2008,
      "Ġlaughed": 2009,
      "osp": 2010,
      "Ġgame": 2011,
      "upid": 2012,
      "Ġinterest": 2013,
      "Ġsaying": 2014,
      "Ġmill": 2015,
      "ming": 2016,
      "night": 2017,
      "ĠBr": 2018,
      "Ġbag": 2019,
      "Ġyourself": 2020,
      "Ġpan": 2021,
      "Ġcouple": 2022,
      "Ġmetal": 2023,
      "Ġstuff": 2024,
      "Ġeng": 2025,
      "Ġ>": 2026,
      "Ġmur": 2027,
      "bsp": 2028,
      "Ġlips": 2029,
      "Ġmir": 2030,
      "Ġnbsp": 2031,
      "Ġkids": 2032,
      "Ġthoughts": 2033,
      "Ġmine": 2034,
      "Ġmakes": 2035,
      "Ġang": 2036,
      "Ġloc": 2037,
      "Ġ[": 2038,
      "Ġluck": 2039,
      "Ġfut": 2040,
      "Ġinstead": 2041,
      "Ġnumber": 2042,
      "Ġhot": 2043,
      "enty": 2044,
      "ask": 2045,
      "Ġgrand": 2046,
      "ls": 2047,
      "Ġocc": 2048,
      "zz": 2049,
      "Ġgrew": 2050,
      "Ġhon": 2051,
      "Ġhung": 2052,
      "Ġbull": 2053,
      "Ġcalm": 2054,
      "Ġpict": 2055,
      "Ġalive": 2056,
      "Ġattention": 2057,
      "Ġtech": 2058,
      "Ġlives": 2059,
      "Ġslightly": 2060,
      "AT": 2061,
      "rupt": 2062,
      "Ġcompletely": 2063,
      "ĠAny": 2064,
      "Ġmed": 2065,
      "aven": 2066,
      "ĠZ": 2067,
      "Ġlegs": 2068,
      "Ġseveral": 2069,
      "ĠDid": 2070,
      "ief": 2071,
      "Ġce": 2072,
      "Ġ/": 2073,
      "Ġbab": 2074,
      "Ġfast": 2075,
      "attle": 2076,
      "Ġhurt": 2077,
      "Ġescap": 2078,
      "Ġlim": 2079,
      "Ġbroken": 2080,
      "Ġsuit": 2081,
      "Ġimport": 2082,
      "Ġsad": 2083,
      "mm": 2084,
      "ĠâĢĺ": 2085,
      "Ġtest": 2086,
      "Ġz": 2087,
      "Ġmoving": 2088,
      "ern": 2089,
      "Ġappeared": 2090,
      "Ġgrin": 2091,
      "Ġdad": 2092,
      "Ġer": 2093,
      "ĠCl": 2094,
      "ĠChr": 2095,
      "ĠTw": 2096,
      "Ġdou": 2097,
      "Ġraised": 2098,
      "Ġeat": 2099,
      "Ġage": 2100,
      "ilt": 2101,
      "ues": 2102,
      "Ġdestro": 2103,
      "Ġthroat": 2104,
      "ug": 2105,
      "ought": 2106,
      "Ġwhisp": 2107,
      "ĠPe": 2108,
      "aint": 2109,
      "Ġsave": 2110,
      "ified": 2111,
      "Ġtight": 2112,
      "Ġherself": 2113,
      "ler": 2114,
      "Ġadv": 2115,
      "Ġsold": 2116,
      "Ġlights": 2117,
      "apt": 2118,
      "Ġcir": 2119,
      "icking": 2120,
      "ĠYOU": 2121,
      "Ġfle": 2122,
      "Ġrad": 2123,
      "Ġcomput": 2124,
      "umbled": 2125,
      "Ġself": 2126,
      "how": 2127,
      "Ġprep": 2128,
      "acing": 2129,
      "Ġfinal": 2130,
      "Ġgrow": 2131,
      "Ġgaz": 2132,
      "Ġcap": 2133,
      "Ġworked": 2134,
      "Ġdamn": 2135,
      "Ġgold": 2136,
      "Ġnearly": 2137,
      "Ġexpect": 2138,
      "ĠGood": 2139,
      "Ġclean": 2140,
      "Ġleaving": 2141,
      "ĠLike": 2142,
      "Ġpa": 2143,
      "Ġgon": 2144,
      "ative": 2145,
      "kes": 2146,
      "Ġattack": 2147,
      "Ġenj": 2148,
      "Ġign": 2149,
      "Ġmist": 2150,
      "Ġgas": 2151,
      "arm": 2152,
      "ision": 2153,
      "Ġorder": 2154,
      "Ġadd": 2155,
      "owers": 2156,
      "Ġten": 2157,
      "Ġpri": 2158,
      "Ġimmediately": 2159,
      "Ġcase": 2160,
      "Ġnormal": 2161,
      "Ġpiece": 2162,
      "Ġcross": 2163,
      "ĠEx": 2164,
      "Ġsimple": 2165,
      "Ġdropped": 2166,
      "ĠJack": 2167,
      "*.": 2168,
      "Ġpeace": 2169,
      "Ġpop": 2170,
      "Ġcomes": 2171,
      "Ġsight": 2172,
      "Ġpick": 2173,
      "ĠDeath": 2174,
      "Ġnews": 2175,
      "Ġroad": 2176,
      "Ġstupid": 2177,
      "Ġav": 2178,
      "Ġleg": 2179,
      "Ġ*''": 2180,
      "cho": 2181,
      "Ġconst": 2182,
      "Ġabs": 2183,
      "ĠLe": 2184,
      "Ġchanged": 2185,
      "Ġsurround": 2186,
      "itc": 2187,
      "ote": 2188,
      "ĠQ": 2189,
      "Ġguys": 2190,
      "ĠRo": 2191,
      "Ġpossible": 2192,
      "Ġwalls": 2193,
      "ination": 2194,
      "Ġdrag": 2195,
      "ĠMe": 2196,
      "Ġmut": 2197,
      "Ġnotice": 2198,
      "Ġgroup": 2199,
      "yed": 2200,
      "Ġspent": 2201,
      "Ġworth": 2202,
      "Ġcovered": 2203,
      "'',": 2204,
      "ĠCan": 2205,
      "Ġeasy": 2206,
      "Ġpos": 2207,
      "iliar": 2208,
      "ĠâĢĵ": 2209,
      "Ġweeks": 2210,
      "ips": 2211,
      "Ġbrain": 2212,
      "Ġsafe": 2213,
      "Ġforce": 2214,
      "rible": 2215,
      "Ġokay": 2216,
      "ibly": 2217,
      "Ġfav": 2218,
      "Ġclot": 2219,
      "Ġlift": 2220,
      "Ġcheck": 2221,
      "Ġlived": 2222,
      "iling": 2223,
      "cri": 2224,
      "Ġfuture": 2225,
      "Ġfly": 2226,
      "Ġrespond": 2227,
      "Ġbene": 2228,
      "rief": 2229,
      "Ġseeing": 2230,
      "use": 2231,
      "Ġdep": 2232,
      "son": 2233,
      "Ġdirect": 2234,
      "Ġ6": 2235,
      "ortal": 2236,
      "Ġknows": 2237,
      "Ġcoun": 2238,
      "uss": 2239,
      "Ġsix": 2240,
      "Ġfoc": 2241,
      "Ġ10": 2242,
      "meric": 2243,
      "ĠNothing": 2244,
      "Ġpushed": 2245,
      "Ġwasn": 2246,
      "Ġoffic": 2247,
      "Ġtall": 2248,
      "Ġir": 2249,
      "ooks": 2250,
      "unt": 2251,
      "cious": 2252,
      "Ġart": 2253,
      "ĠAd": 2254,
      "Ġpack": 2255,
      "Ġsecret": 2256,
      "els": 2257,
      "arr": 2258,
      "ĠPer": 2259,
      "Ġsilent": 2260,
      "ades": 2261,
      "Ġmanaged": 2262,
      "ĠNe": 2263,
      "Ġrememb": 2264,
      "ĠJim": 2265,
      "ait": 2266,
      "uation": 2267,
      "ushing": 2268,
      "Ġhero": 2269,
      "ining": 2270,
      "co": 2271,
      "Ġmachine": 2272,
      "rat": 2273,
      "Ġexplo": 2274,
      "Ġscreamed": 2275,
      "ĠAmeric": 2276,
      "Ġsear": 2277,
      "Ġheavy": 2278,
      "AN": 2279,
      "ĠTom": 2280,
      "Ġinform": 2281,
      "Ġsick": 2282,
      "Ġhist": 2283,
      "Ġteeth": 2284,
      "ously": 2285,
      "Ġhang": 2286,
      "ution": 2287,
      "Ġble": 2288,
      "itchen": 2289,
      "ĠOur": 2290,
      "Ġanyway": 2291,
      "Ġstom": 2292,
      "Ġcam": 2293,
      "form": 2294,
      "Ġpocket": 2295,
      "Ġwide": 2296,
      "oid": 2297,
      "Ġreach": 2298,
      "oring": 2299,
      "ĠDr": 2300,
      "ges": 2301,
      "Ġspr": 2302,
      "Ġsword": 2303,
      "Ġknife": 2304,
      "yond": 2305,
      "Ġanim": 2306,
      "ĠSam": 2307,
      "Ġspot": 2308,
      "hered": 2309,
      "ĠSte": 2310,
      "ression": 2311,
      "ism": 2312,
      "Ġuniverse": 2313,
      "Ġcover": 2314,
      "Ġkitchen": 2315,
      "aching": 2316,
      "iff": 2317,
      "amed": 2318,
      "Ġshouted": 2319,
      "Ġbroke": 2320,
      "Ġbes": 2321,
      "Ġdust": 2322,
      "Ġbattle": 2323,
      "ĠSc": 2324,
      "Ġimm": 2325,
      "Ġwriting": 2326,
      "Ġrob": 2327,
      "Ġbas": 2328,
      "Ġweak": 2329,
      "Ġspl": 2330,
      "ived": 2331,
      "Ġpost": 2332,
      "Ġill": 2333,
      "Ġpartic": 2334,
      "Ġball": 2335,
      "Ġmagic": 2336,
      "Ġdistance": 2337,
      "Ġprog": 2338,
      "!!": 2339,
      "Ġhowever": 2340,
      "Ġcomfort": 2341,
      "orrow": 2342,
      "Ġduring": 2343,
      "Ġdraw": 2344,
      "Ġpen": 2345,
      "Ġedge": 2346,
      "wards": 2347,
      "Ġfinger": 2348,
      "Ġtree": 2349,
      "Ġcomputer": 2350,
      "land": 2351,
      "ĠTHE": 2352,
      "Ġbelow": 2353,
      "RE": 2354,
      "Ġodd": 2355,
      "Ġstat": 2356,
      "ogn": 2357,
      "Ġstrugg": 2358,
      "Ġadm": 2359,
      "Ġwaited": 2360,
      "Ġbirth": 2361,
      "oss": 2362,
      "ingly": 2363,
      "Ġlab": 2364,
      "ills": 2365,
      "Ġstri": 2366,
      "Ġworry": 2367,
      "Ġbeat": 2368,
      "ĠCom": 2369,
      "Ġview": 2370,
      "Ġimportant": 2371,
      "Ġplaced": 2372,
      "Ġsens": 2373,
      "ĠWas": 2374,
      "irty": 2375,
      "Ġmod": 2376,
      "ĠSp": 2377,
      "raid": 2378,
      "Ġsum": 2379,
      "ald": 2380,
      "mp": 2381,
      "Ġobs": 2382,
      "Ġdel": 2383,
      "ĠJames": 2384,
      "bit": 2385,
      "Ġminute": 2386,
      "hh": 2387,
      "Ġfurther": 2388,
      "Ġremembered": 2389,
      "ider": 2390,
      "Ġsounds": 2391,
      "Ġbeyond": 2392,
      "Ġhate": 2393,
      "Ġdog": 2394,
      "Ġtired": 2395,
      "Ġenjoy": 2396,
      "Ġturning": 2397,
      "Ġhumanity": 2398,
      "Ġfamiliar": 2399,
      "LL": 2400,
      "inite": 2401,
      "Ġforget": 2402,
      "Ġtruth": 2403,
      "Ġmessage": 2404,
      "Ġears": 2405,
      "Ġfield": 2406,
      "Ġgoes": 2407,
      "Ġnoise": 2408,
      "Ġpath": 2409,
      "Ġ7": 2410,
      "Ġdoors": 2411,
      "Ġstare": 2412,
      "Ġreve": 2413,
      "Ġweird": 2414,
      "Ġthrew": 2415,
      "Ġcommand": 2416,
      "ĠLook": 2417,
      "Ġgets": 2418,
      "ries": 2419,
      "Ġwhispered": 2420,
      "bbing": 2421,
      "Ġrain": 2422,
      "Ġrequ": 2423,
      "Ġsuc": 2424,
      "âĢĶ": 2425,
      "cing": 2426,
      "Ġvill": 2427,
      "Ġguard": 2428,
      "like": 2429,
      "Ġpun": 2430,
      "Ġcontact": 2431,
      "ron": 2432,
      "face": 2433,
      "Ġworse": 2434,
      "Ġunc": 2435,
      "logy": 2436,
      "vin": 2437,
      "ON": 2438,
      "usion": 2439,
      "Ġbusiness": 2440,
      "Ġ9": 2441,
      "Ġaccept": 2442,
      "ĠDad": 2443,
      "Ġhat": 2444,
      "Ġgovern": 2445,
      "Ġcool": 2446,
      "ĠSure": 2447,
      "dy": 2448,
      "iled": 2449,
      "Ġfa": 2450,
      "Ġdoctor": 2451,
      "Ġplaying": 2452,
      "It": 2453,
      "come": 2454,
      "Ġdesp": 2455,
      "Ġdaughter": 2456,
      "Ġthick": 2457,
      "Ġteam": 2458,
      "ural": 2459,
      "Ġspread": 2460,
      "Ġcast": 2461,
      "Ġfinished": 2462,
      "oof": 2463,
      "Ġstories": 2464,
      "omb": 2465,
      "Ġknowing": 2466,
      "Ġcreature": 2467,
      "Ġstar": 2468,
      "ĠHar": 2469,
      "ĠTheir": 2470,
      "Ġsmoke": 2471,
      "ĠEveryone": 2472,
      "Ġmount": 2473,
      "Ġfix": 2474,
      "ĠPro": 2475,
      "Ġwake": 2476,
      "Ġsweet": 2477,
      "Ġkne": 2478,
      "ky": 2479,
      "ĠPr": 2480,
      "Ġcapt": 2481,
      "Ġmoments": 2482,
      "Ġgri": 2483,
      "Ġking": 2484,
      "ING": 2485,
      "ĠBefore": 2486,
      "Ġscreaming": 2487,
      "Ġnote": 2488,
      "Ġord": 2489,
      "Ġchee": 2490,
      "Ġwearing": 2491,
      "Ġbrief": 2492,
      "Ġtakes": 2493,
      "Ġwoke": 2494,
      "Ġring": 2495,
      "ole": 2496,
      "Ġpointed": 2497,
      "ĠBy": 2498,
      "Ġoften": 2499,
      "ĠPeople": 2500,
      "Ġcouldn": 2501,
      "ĠFin": 2502,
      "esh": 2503,
      "lect": 2504,
      "Ġcommun": 2505,
      "Ġrecogn": 2506,
      "Ġtelling": 2507,
      "ior": 2508,
      "ĠSomething": 2509,
      "Ġconfused": 2510,
      "Ġrock": 2511,
      "gin": 2512,
      "Ġbaby": 2513,
      "Ġreport": 2514,
      "Ġforever": 2515,
      "zen": 2516,
      "du": 2517,
      "Ġsand": 2518,
      "cause": 2519,
      "Ġreading": 2520,
      "Ġexcept": 2521,
      "ĠChrist": 2522,
      "Ġround": 2523,
      "ocked": 2524,
      "Ġprof": 2525,
      "ĠSir": 2526,
      "Ġblank": 2527,
      "ffect": 2528,
      "Ġta": 2529,
      "Ġbra": 2530,
      "usted": 2531,
      "~~": 2532,
      "Ġafraid": 2533,
      "alth": 2534,
      "mon": 2535,
      "Ġrolled": 2536,
      "ĠTr": 2537,
      "Ġreturned": 2538,
      "Ġmemory": 2539,
      "aled": 2540,
      "using": 2541,
      "Ġkiss": 2542,
      "Ġrece": 2543,
      "Ġ8": 2544,
      "ex": 2545,
      "ping": 2546,
      "Ġpolice": 2547,
      "Ġprotect": 2548,
      "Ġsmo": 2549,
      "Ġeff": 2550,
      "Ġbrown": 2551,
      "vious": 2552,
      "OO": 2553,
      "Ġamong": 2554,
      "Ġequ": 2555,
      "tering": 2556,
      "Ġprocess": 2557,
      "Ġma": 2558,
      "Ġtiny": 2559,
      "Ġhistory": 2560,
      "Ġsoc": 2561,
      "Ġtruly": 2562,
      "line": 2563,
      "Ġsigh": 2564,
      "Ġlaw": 2565,
      "Ġfair": 2566,
      "isted": 2567,
      "Ġcountry": 2568,
      "Ġnumb": 2569,
      "Ġbutton": 2570,
      "Ġwomen": 2571,
      "Ġmeans": 2572,
      "Ġyelled": 2573,
      "Ġtem": 2574,
      "Ġended": 2575,
      "Ġbeginning": 2576,
      "Ġstomach": 2577,
      "Ġstuck": 2578,
      "Ġborn": 2579,
      "Ġnose": 2580,
      "dit": 2581,
      "Ġsituation": 2582,
      "Ġenem": 2583,
      "Ġsomehow": 2584,
      "Ġcrying": 2585,
      "na": 2586,
      "Ġvi": 2587,
      "Ġquestions": 2588,
      "Ġfro": 2589,
      "Ġearly": 2590,
      "Ġwip": 2591,
      "Ġmirror": 2592,
      "ĠNew": 2593,
      "Ġsal": 2594,
      "ĠTwo": 2595,
      "Ġnerv": 2596,
      "ĠOkay": 2597,
      "Ġrealize": 2598,
      "?!": 2599,
      "Ġconvers": 2600,
      "Ġclim": 2601,
      "Ġchuck": 2602,
      "Ġpoor": 2603,
      "ĠMan": 2604,
      "Ġblind": 2605,
      "Ġbod": 2606,
      "Ġsometimes": 2607,
      "ager": 2608,
      "itten": 2609,
      "Ġsomewhere": 2610,
      "Ġgiving": 2611,
      "Ġdin": 2612,
      "Ġshall": 2613,
      "ĠFrom": 2614,
      "Ġcrazy": 2615,
      "the": 2616,
      "ĠThank": 2617,
      "Ġnone": 2618,
      "Ġenerg": 2619,
      "Ġchoice": 2620,
      "tt": 2621,
      "Ġcatch": 2622,
      "ĠCome": 2623,
      "Ġspecial": 2624,
      "ĠMic": 2625,
      "Ġhosp": 2626,
      "Ġcell": 2627,
      "ĠWill": 2628,
      "ĠGo": 2629,
      "Ġtast": 2630,
      "Ġstars": 2631,
      "ails": 2632,
      "Ġfavor": 2633,
      "*,": 2634,
      "nds": 2635,
      "rence": 2636,
      "ĠChar": 2637,
      "ĠOnce": 2638,
      "Ġbath": 2639,
      "Ġfalling": 2640,
      "Ġcamer": 2641,
      "Ġtouch": 2642,
      "Ġusing": 2643,
      "Ġmis": 2644,
      "ume": 2645,
      "de": 2646,
      "Ġslam": 2647,
      "Ġstone": 2648,
      "Ġscared": 2649,
      "kn": 2650,
      "eter": 2651,
      "Ġdrive": 2652,
      "Ġtravel": 2653,
      "Ġperhaps": 2654,
      "ĠDan": 2655,
      "Ġwra": 2656,
      "ĠOnly": 2657,
      "aked": 2658,
      "ĠThese": 2659,
      "Ġleaned": 2660,
      "Ġcond": 2661,
      "Ġwond": 2662,
      "Ġdoub": 2663,
      "Ġexpected": 2664,
      "ww": 2665,
      "Ġlevel": 2666,
      "Ġahead": 2667,
      "amn": 2668,
      "Ġtrou": 2669,
      "Ġapartment": 2670,
      "Ġsharp": 2671,
      "Ġsteps": 2672,
      "Ġcontinue": 2673,
      "Ġsus": 2674,
      "ĠAm": 2675,
      "Ġlearned": 2676,
      "ledge": 2677,
      "ĠBecause": 2678,
      "Ġmad": 2679,
      "iety": 2680,
      "Ġmemories": 2681,
      "Ġeventually": 2682,
      "Ġbeneath": 2683,
      "Ġsweat": 2684,
      "ĠSat": 2685,
      "Ġecho": 2686,
      "Ġdesper": 2687,
      "ighb": 2688,
      "aly": 2689,
      "ises": 2690,
      "roll": 2691,
      "Ġenc": 2692,
      "Ġtear": 2693,
      "Ġremind": 2694,
      "Ġdefe": 2695,
      "Ġshowed": 2696,
      "awn": 2697,
      "irm": 2698,
      "Ġshaking": 2699,
      "idge": 2700,
      "onse": 2701,
      "Ġwrite": 2702,
      "Ġpot": 2703,
      "Ġenergy": 2704,
      "Ġphys": 2705,
      "oll": 2706,
      "ĠSar": 2707,
      "Ġtrees": 2708,
      "oming": 2709,
      "Ġstarting": 2710,
      "Ġturns": 2711,
      "Ġmoon": 2712,
      "Ġtwenty": 2713,
      "sy": 2714,
      "Ġgotten": 2715,
      "Ġglo": 2716,
      "Ġvict": 2717,
      "ĠCar": 2718,
      "Ġdying": 2719,
      "ĠGr": 2720,
      "ĠLuc": 2721,
      "Ġolder": 2722,
      "velop": 2723,
      "Ġstret": 2724,
      "Ġreality": 2725,
      "Ġgro": 2726,
      "ĠFuck": 2727,
      "Ġthin": 2728,
      "Ġcreated": 2729,
      "Ġclothes": 2730,
      "Ġbeast": 2731,
      "ik": 2732,
      "tic": 2733,
      "Ġgaze": 2734,
      "Ġappear": 2735,
      "Ġterr": 2736,
      "Ġspecies": 2737,
      "Ġfollow": 2738,
      "Ġneighb": 2739,
      "Ġthreat": 2740,
      "Ġpu": 2741,
      "ĠHowever": 2742,
      "Ġbat": 2743,
      "Ġscient": 2744,
      "IT": 2745,
      "Ġhappening": 2746,
      "Ġevil": 2747,
      "Ġcop": 2748,
      "Ġsett": 2749,
      "ED": 2750,
      "ipping": 2751,
      "Ġbill": 2752,
      "though": 2753,
      "ĠNO": 2754,
      "Ġdemon": 2755,
      "Ġhole": 2756,
      "ĠEverything": 2757,
      "Ġescape": 2758,
      "ĠHum": 2759,
      "Ġdanger": 2760,
      "Ġviol": 2761,
      "Ġeffect": 2762,
      "Ġentered": 2763,
      "ively": 2764,
      "ode": 2765,
      "Ġstore": 2766,
      "Ġrese": 2767,
      "Ġthird": 2768,
      "Ġetern": 2769,
      "ĠWait": 2770,
      "Ġposition": 2771,
      "ĠMost": 2772,
      "ĠMom": 2773,
      "ives": 2774,
      "Ġcirc": 2775,
      "Ġpicture": 2776,
      "ĠAnother": 2777,
      "Ġdim": 2778,
      "Ġhospital": 2779,
      "Ġemp": 2780,
      "gan": 2781,
      "Ġrepe": 2782,
      "Ġcried": 2783,
      "Ġbodies": 2784,
      "Ġflash": 2785,
      "Ġstate": 2786,
      "Ġclearly": 2787,
      "oint": 2788,
      "pose": 2789,
      "Ġlisten": 2790,
      "Ġprompt": 2791,
      "Ġsuff": 2792,
      "Ġusually": 2793,
      "cl": 2794,
      "Ġpaused": 2795,
      "Ġcounter": 2796,
      "ashing": 2797,
      "Ġsurface": 2798,
      "leep": 2799,
      "Ġusual": 2800,
      "Ġarrived": 2801,
      "aling": 2802,
      "Ġliked": 2803,
      "icks": 2804,
      "otten": 2805,
      "Ġaccident": 2806,
      "Ġelect": 2807,
      "ĠPl": 2808,
      "cking": 2809,
      "Ġweapon": 2810,
      "Ġforest": 2811,
      "Ġpract": 2812,
      "Ġcarry": 2813,
      "Ġgovernment": 2814,
      "Ġinformation": 2815,
      "Ġrose": 2816,
      "Ġtom": 2817,
      "Ġbell": 2818,
      "ĠJes": 2819,
      "Ġvision": 2820,
      "Ġburst": 2821,
      "ooking": 2822,
      "Ġspeed": 2823,
      "eral": 2824,
      "Ġfaces": 2825,
      "ucked": 2826,
      "Ġflesh": 2827,
      "ĠSuddenly": 2828,
      "Ġresponse": 2829,
      "Ġid": 2830,
      "angu": 2831,
      "ading": 2832,
      "ium": 2833,
      "AR": 2834,
      "Ġshock": 2835,
      "Ġjumped": 2836,
      "ulation": 2837,
      "EN": 2838,
      "Ġled": 2839,
      "itted": 2840,
      "ĠThose": 2841,
      "Ġweight": 2842,
      "Ġtrack": 2843,
      "Ġbottle": 2844,
      "overed": 2845,
      "Ġconn": 2846,
      "Ġsister": 2847,
      "Ġmusic": 2848,
      "Ġwon": 2849,
      "ĠPres": 2850,
      "erm": 2851,
      "Ġmotion": 2852,
      "Ġanc": 2853,
      "Ġexistence": 2854,
      "Ġtow": 2855,
      "Ġintern": 2856,
      "Ġexplain": 2857,
      "illy": 2858,
      "Ġfil": 2859,
      "ney": 2860,
      "ES": 2861,
      "Ġglanced": 2862,
      "Ġ^": 2863,
      "ĠAg": 2864,
      "Ġmid": 2865,
      "Ġfif": 2866,
      "hel": 2867,
      "astic": 2868,
      "Ġdrop": 2869,
      "ruct": 2870,
      "ifted": 2871,
      "Ġshoot": 2872,
      "Ġmov": 2873,
      "Ġapproached": 2874,
      "Ġmark": 2875,
      "Ġhonest": 2876,
      "rect": 2877,
      "Ġtele": 2878,
      "ization": 2879,
      "Ġmassive": 2880,
      "Ġpresent": 2881,
      "aimed": 2882,
      "hy": 2883,
      "OR": 2884,
      "Ġarea": 2885,
      "Ġstreng": 2886,
      "Ġfighting": 2887,
      "Ġmain": 2888,
      "Ġdirection": 2889,
      "Ġlearn": 2890,
      "ĠHere": 2891,
      "que": 2892,
      "ĠKing": 2893,
      "band": 2894,
      "Ġworst": 2895,
      "Ġhide": 2896,
      "Ġange": 2897,
      "Ġshirt": 2898,
      "omed": 2899,
      "port": 2900,
      "Ġgrowing": 2901,
      "viously": 2902,
      "Ġtechno": 2903,
      "Ġallowed": 2904,
      "Ġsmiling": 2905,
      "Ġtrain": 2906,
      "Ġsurprise": 2907,
      "ury": 2908,
      "Ġsend": 2909,
      "CK": 2910,
      "arently": 2911,
      "Ġbeside": 2912,
      "Ġshru": 2913,
      "oned": 2914,
      "Ġangry": 2915,
      "Ġknees": 2916,
      "Ġkey": 2917,
      "work": 2918,
      "idence": 2919,
      "Ġsounded": 2920,
      "ĠGet": 2921,
      "IS": 2922,
      "lex": 2923,
      "Ġcig": 2924,
      "ayed": 2925,
      "****": 2926,
      "ĠHello": 2927,
      "Ġcurrent": 2928,
      "iers": 2929,
      "Ġtonight": 2930,
      "ishing": 2931,
      "Ġserv": 2932,
      "ency": 2933,
      "ĠFinally": 2934,
      "Ġobject": 2935,
      "cha": 2936,
      "ses": 2937,
      "Ġsuppose": 2938,
      "ĠStill": 2939,
      "ats": 2940,
      "Ġfu": 2941,
      "Ġrev": 2942,
      "une": 2943,
      "Ġvar": 2944,
      "Ġlocked": 2945,
      "Ġund": 2946,
      "Ġpressed": 2947,
      "Ġcolor": 2948,
      "Ġparty": 2949,
      "Ġunf": 2950,
      "pse": 2951,
      "Ġyeah": 2952,
      "Ġwand": 2953,
      "Ġcolle": 2954,
      "ĠTod": 2955,
      "Ġcompany": 2956,
      "Ġlose": 2957,
      "ians": 2958,
      "Ġpub": 2959,
      "Ġhus": 2960,
      "Ġforced": 2961,
      "ils": 2962,
      "Ġwild": 2963,
      "Ġstairs": 2964,
      "Ġreact": 2965,
      "aur": 2966,
      "ĠInst": 2967,
      "Ġut": 2968,
      "ĠPerhaps": 2969,
      "Ġgrey": 2970,
      "Ġcenter": 2971,
      "idden": 2972,
      "entle": 2973,
      "Ġanger": 2974,
      "Ġsudden": 2975,
      "Ġhun": 2976,
      "Ġhuge": 2977,
      "inting": 2978,
      "000": 2979,
      "Ġstrength": 2980,
      "cer": 2981,
      "fet": 2982,
      "Ġheaven": 2983,
      "ock": 2984,
      "Ġthank": 2985,
      "Ġ#": 2986,
      "ĠKe": 2987,
      "Ġshoulders": 2988,
      "oose": 2989,
      "Ġamount": 2990,
      "Ġrul": 2991,
      "Ġjud": 2992,
      "Ġstation": 2993,
      "Ġeffort": 2994,
      "AS": 2995,
      "Ġcause": 2996,
      "riend": 2997,
      "Ġfresh": 2998,
      "Ġgrab": 2999,
      "ĠSorry": 3000,
      "ances": 3001,
      "roud": 3002,
      "Ġlangu": 3003,
      "board": 3004,
      "Ġconversation": 3005,
      "Ġdragon": 3006,
      "Ġlie": 3007,
      "Ġsusp": 3008,
      "initely": 3009,
      "Ġimposs": 3010,
      "Ġtar": 3011,
      "Ġgiant": 3012,
      "==": 3013,
      "Ġkilling": 3014,
      "hood": 3015,
      "Ġboss": 3016,
      "Ġcas": 3017,
      "ĠMark": 3018,
      "Ġbooks": 3019,
      ",'": 3020,
      "igg": 3021,
      "Ġalien": 3022,
      "Ġspir": 3023,
      "ĠPresident": 3024,
      "Ġstorm": 3025,
      "asion": 3026,
      "ĠDon": 3027,
      "erve": 3028,
      "Ġblade": 3029,
      "Ġheat": 3030,
      "Ġterm": 3031,
      "Ġdescri": 3032,
      "izing": 3033,
      "cent": 3034,
      "ĠJesus": 3035,
      "Ġtone": 3036,
      "Ġvan": 3037,
      "ĠSm": 3038,
      "Ġwondered": 3039,
      "Ġcup": 3040,
      "Ġann": 3041,
      "dom": 3042,
      "Ġopt": 3043,
      "Ġcharac": 3044,
      "itor": 3045,
      "Ġhoping": 3046,
      "Ġexperience": 3047,
      "Ġquietly": 3048,
      "ĠCapt": 3049,
      "over": 3050,
      "Ġdreams": 3051,
      "Ġweapons": 3052,
      "Ġburning": 3053,
      "umed": 3054,
      "Ġ).": 3055,
      "teen": 3056,
      "fic": 3057,
      "ĠQu": 3058,
      "rest": 3059,
      "ĠRight": 3060,
      "ays": 3061,
      "Ġmer": 3062,
      "ĠFrank": 3063,
      "ball": 3064,
      "inct": 3065,
      "Ġlaughing": 3066,
      "Ġrace": 3067,
      "Ġhandle": 3068,
      "Ġcrew": 3069,
      "Ġcru": 3070,
      "Ġpurpose": 3071,
      "Ġpowerful": 3072,
      "Ġclock": 3073,
      "Ġremained": 3074,
      "ina": 3075,
      "Ġnobody": 3076,
      "ĠAh": 3077,
      "Ġdress": 3078,
      "Ġknowledge": 3079,
      "Ġsnow": 3080,
      "Ġbuilt": 3081,
      "Ġbathroom": 3082,
      "Ġprov": 3083,
      "Ġpulling": 3084,
      "Ġcollect": 3085,
      "ilar": 3086,
      "Ġterrible": 3087,
      "Ġproper": 3088,
      "Ġlack": 3089,
      "set": 3090,
      "ding": 3091,
      "ĠSee": 3092,
      "Ġ***": 3093,
      "ĠGre": 3094,
      "olute": 3095,
      "ires": 3096,
      "Ġsurprised": 3097,
      "Ġsong": 3098,
      "Ġcollap": 3099,
      "Ġagre": 3100,
      "Ġdru": 3101,
      "Ġdig": 3102,
      "ĠEl": 3103,
      "ords": 3104,
      "Ġfit": 3105,
      "ship": 3106,
      "olog": 3107,
      "Ġrid": 3108,
      "Ġwound": 3109,
      "Ġpleas": 3110,
      "Ġimagine": 3111,
      "acher": 3112,
      "Ġinterrupt": 3113,
      "Ġjack": 3114,
      "Ġfigured": 3115,
      "Ġori": 3116,
      "ĠSl": 3117,
      "orth": 3118,
      "Ġtext": 3119,
      "Ġmaster": 3120,
      "Ġsuccess": 3121,
      "Ġtomorrow": 3122,
      "cially": 3123,
      "Ġasking": 3124,
      "Ġice": 3125,
      "ĠCon": 3126,
      "Ġbow": 3127,
      "Ġproject": 3128,
      "Ġjoke": 3129,
      "Ġfeed": 3130,
      "acy": 3131,
      "urity": 3132,
      "Ġfunny": 3133,
      "Ġtreat": 3134,
      "Ġradio": 3135,
      "Ġjour": 3136,
      "ĠTime": 3137,
      "hael": 3138,
      "ĠDav": 3139,
      "ma": 3140,
      "Ġrecord": 3141,
      "ĠGu": 3142,
      "eor": 3143,
      "Ġaud": 3144,
      "Ġpowers": 3145,
      "Ġbottom": 3146,
      "Ġciv": 3147,
      "Ġdue": 3148,
      "Ġgest": 3149,
      "Ġfeels": 3150,
      "ellig": 3151,
      "Ġ19": 3152,
      "ec": 3153,
      "Ġanswered": 3154,
      "ceed": 3155,
      "ĠCaptain": 3156,
      "ĠJe": 3157,
      "Ġlaid": 3158,
      "Ġeight": 3159,
      "Ġinn": 3160,
      "Ġcab": 3161,
      "izz": 3162,
      "Ġexam": 3163,
      "Ġmere": 3164,
      "Ġgently": 3165,
      "Ġamaz": 3166,
      "Ġbreathing": 3167,
      "fer": 3168,
      "ality": 3169,
      "Ġdoll": 3170,
      "Ġforth": 3171,
      "ĠRed": 3172,
      "Ġfailed": 3173,
      "Ġfaster": 3174,
      "Ġhes": 3175,
      "ech": 3176,
      "Ġhappens": 3177,
      "eed": 3178,
      "Ġcarefully": 3179,
      "Ġsea": 3180,
      "ĠLord": 3181,
      "ipp": 3182,
      "Ġways": 3183,
      "ĠGra": 3184,
      "Ġdate": 3185,
      "let": 3186,
      "Ġshadow": 3187,
      "ĠFirst": 3188,
      "Ġfool": 3189,
      "ring": 3190,
      "Ġforgotten": 3191,
      "Ġprison": 3192,
      "Ġcard": 3193,
      "itary": 3194,
      "Ġpale": 3195,
      "Ġgentle": 3196,
      "Ġstick": 3197,
      "Ġmeeting": 3198,
      "Ġwritten": 3199,
      "Ġdressed": 3200,
      "lessly": 3201,
      "Ġcreatures": 3202,
      "Ġdry": 3203,
      "Ġcalling": 3204,
      "Ġ%": 3205,
      "Ġmonster": 3206,
      "Ġnon": 3207,
      "ration": 3208,
      "ĠHave": 3209,
      "Ġcomb": 3210,
      "Ġwants": 3211,
      "Ġhy": 3212,
      "Ġfinish": 3213,
      "ĠGreat": 3214,
      "ĠTim": 3215,
      "ague": 3216,
      "oon": 3217,
      "Ġlifted": 3218,
      "ĠIts": 3219,
      "ĠTV": 3220,
      "chan": 3221,
      "lier": 3222,
      "Ġdevelop": 3223,
      "Ġphot": 3224,
      "nel": 3225,
      "Ġur": 3226,
      "igned": 3227,
      "Ġasleep": 3228,
      "Ġyellow": 3229,
      "Ġfollowing": 3230,
      "Ġprogram": 3231,
      "lish": 3232,
      "Ġaff": 3233,
      "Ġmaj": 3234,
      "Ġlying": 3235,
      "iment": 3236,
      "ĠWhile": 3237,
      "Ġterror": 3238,
      "eng": 3239,
      "bel": 3240,
      "Ġmillion": 3241,
      "Ġspell": 3242,
      "Ġlady": 3243,
      "Ġdisg": 3244,
      "Ġstarts": 3245,
      "Ġdiffic": 3246,
      "Ġhesit": 3247,
      "rib": 3248,
      "men": 3249,
      "Ġhusband": 3250,
      "Ġfate": 3251,
      "AA": 3252,
      "Ġgrass": 3253,
      "Ġfocus": 3254,
      "Ġcy": 3255,
      "Ġpill": 3256,
      "Ġsour": 3257,
      "Ġscrat": 3258,
      "Ġboard": 3259,
      "Ġfat": 3260,
      "Ġscreams": 3261,
      "Ġaut": 3262,
      "Ġwave": 3263,
      "Ġdespite": 3264,
      "illed": 3265,
      "ially": 3266,
      "ĠAlright": 3267,
      "iam": 3268,
      "ground": 3269,
      "iot": 3270,
      "Ġenemy": 3271,
      "Ġdirt": 3272,
      "ley": 3273,
      "atic": 3274,
      "ĠWar": 3275,
      "Ġgar": 3276,
      "Ġremo": 3277,
      "Ġmissing": 3278,
      "eps": 3279,
      "Ġcamera": 3280,
      "Ġstreets": 3281,
      "iving": 3282,
      "Ġcoat": 3283,
      "arch": 3284,
      "Ġ//": 3285,
      "Ġengine": 3286,
      "Ġplaces": 3287,
      "Ġrap": 3288,
      "Ġnur": 3289,
      "Ġspeaking": 3290,
      "enn": 3291,
      "Ġshop": 3292,
      "Ġeasily": 3293,
      "Ġthousands": 3294,
      "Ġplayed": 3295,
      "Ġwhisper": 3296,
      "Ġcand": 3297,
      "Ġexpression": 3298,
      "umbling": 3299,
      "Ġ12": 3300,
      "Ġvide": 3301,
      "Ġoh": 3302,
      "Ġwit": 3303,
      "Ġnumbers": 3304,
      "Ġfavorite": 3305,
      "Ġproud": 3306,
      "ĠMore": 3307,
      "miss": 3308,
      "Ġlone": 3309,
      "Ġscene": 3310,
      "Ġneeds": 3311,
      "Ġpanic": 3312,
      "Ġfought": 3313,
      "mber": 3314,
      "Ġtot": 3315,
      "orld": 3316,
      "Ġstream": 3317,
      "Ġjoy": 3318,
      "Ġdoubt": 3319,
      "ius": 3320,
      "sion": 3321,
      "Ġalright": 3322,
      "Ġcamp": 3323,
      "ĠSarah": 3324,
      "Ġcigare": 3325,
      "Ġsteel": 3326,
      "Ġflying": 3327,
      "Ġblur": 3328,
      "Ġspend": 3329,
      "Ġnature": 3330,
      "Ġpage": 3331,
      "Ġsoldiers": 3332,
      "ouds": 3333,
      "Ġimpossible": 3334,
      "Ġlucky": 3335,
      "ded": 3336,
      "Ġsupport": 3337,
      "Ġscra": 3338,
      "Ġaware": 3339,
      "ĠMichael": 3340,
      "alk": 3341,
      "ĠEng": 3342,
      "Ġresult": 3343,
      "val": 3344,
      "Ġment": 3345,
      "ĠFl": 3346,
      "Ġtarget": 3347,
      "Ġcost": 3348,
      "Ġpound": 3349,
      "Ġwindows": 3350,
      "Ġtong": 3351,
      "ĠSha": 3352,
      "Ġsize": 3353,
      "erry": 3354,
      "amm": 3355,
      "ĠX": 3356,
      "rom": 3357,
      "Ġsurvive": 3358,
      "Ġemb": 3359,
      "Ġsnapped": 3360,
      "ature": 3361,
      "Ġstayed": 3362,
      "Ġtechnology": 3363,
      "ĠToday": 3364,
      "ession": 3365,
      "Ġlocal": 3366,
      "aul": 3367,
      "gging": 3368,
      "Ġcertainly": 3369,
      "uit": 3370,
      "Ġhig": 3371,
      "Ġlaughter": 3372,
      "Ġ``,": 3373,
      "fortun": 3374,
      "oured": 3375,
      "Ġcaused": 3376,
      "Ġpush": 3377,
      "Ġnearby": 3378,
      "Ġability": 3379,
      "inc": 3380,
      "ruction": 3381,
      "Ġflew": 3382,
      "Ġpieces": 3383,
      "ĠAlex": 3384,
      "Ġemotion": 3385,
      "Ġcal": 3386,
      "Ġfallen": 3387,
      "Ġchecked": 3388,
      "Ġpair": 3389,
      "Ġoce": 3390,
      "athered": 3391,
      "Ġbase": 3392,
      "Ġmission": 3393,
      "ancing": 3394,
      "Ġhated": 3395,
      "Ġeverywhere": 3396,
      "Ġleaves": 3397,
      "Ġdinner": 3398,
      "Ġletter": 3399,
      "por": 3400,
      "ational": 3401,
      "Ġlanguage": 3402,
      "Ġworks": 3403,
      "ĠAb": 3404,
      "Ġorigin": 3405,
      "Ġdisappeared": 3406,
      "ested": 3407,
      "zed": 3408,
      "Ġcommunic": 3409,
      "cil": 3410,
      "go": 3411,
      "Ġcloud": 3412,
      "Ġrif": 3413,
      "ĠTO": 3414,
      "Ġwore": 3415,
      "Ġperfectly": 3416,
      "Ġappre": 3417,
      "aff": 3418,
      "Ġwis": 3419,
      "Ġopening": 3420,
      "Ġincred": 3421,
      "Ġancient": 3422,
      "Ġtrust": 3423,
      "Ġuns": 3424,
      "Ġdispl": 3425,
      "Ġprepared": 3426,
      "host": 3427,
      "Ġthrow": 3428,
      "Ġarg": 3429,
      "Ġbegins": 3430,
      "Ġexcited": 3431,
      "?!''": 3432,
      "Ġcouch": 3433,
      "ĠDave": 3434,
      "tend": 3435,
      "Ġhallway": 3436,
      "Ġworried": 3437,
      "Ġclouds": 3438,
      "Ġfaded": 3439,
      "ĠPh": 3440,
      "Ġresponded": 3441,
      "anted": 3442,
      "Ġburned": 3443,
      "Ġoffe": 3444,
      "ĠSatan": 3445,
      "Ġbirthday": 3446,
      "Ġtrouble": 3447,
      "Ġgirls": 3448,
      "Ġdemand": 3449,
      "Ġbuy": 3450,
      "Ġcorrect": 3451,
      "ĠThanks": 3452,
      "Ġserious": 3453,
      "Ġceiling": 3454,
      "Ġexha": 3455,
      "Ġearlier": 3456,
      "Ġfold": 3457,
      "Ġtoss": 3458,
      "aa": 3459,
      "ĠSometimes": 3460,
      "ĠEm": 3461,
      "ĠWH": 3462,
      "een": 3463,
      "Ġscan": 3464,
      "Ġiss": 3465,
      "Ġlines": 3466,
      "Ġhelped": 3467,
      "Ġadj": 3468,
      "Ġtrip": 3469,
      "Ġfaint": 3470,
      "Ġheads": 3471,
      "rel": 3472,
      "Ġdefinitely": 3473,
      "Ġval": 3474,
      "ĠDavid": 3475,
      "Ġsmart": 3476,
      "Ġhanded": 3477,
      "'.": 3478,
      "yle": 3479,
      "Ġris": 3480,
      "Ġbast": 3481,
      "aying": 3482,
      "Ġofficer": 3483,
      "Ġ),": 3484,
      "Ġabsolute": 3485,
      "Ġbedroom": 3486,
      "Ġreply": 3487,
      "Ġanno": 3488,
      "Ġinteresting": 3489,
      "Ġmiles": 3490,
      "Ġdat": 3491,
      "Ġsaved": 3492,
      "Ġsex": 3493,
      "gr": 3494,
      "Ġdrew": 3495,
      "Ġcompl": 3496,
      "Ġleader": 3497,
      "Ġoper": 3498,
      "isf": 3499,
      "Ġdirectly": 3500,
      "sidered": 3501,
      "Ġkeeping": 3502,
      "EE": 3503,
      "Ġprop": 3504,
      "Ġmention": 3505,
      "Ġbear": 3506,
      "Ġnervous": 3507,
      "Ġhorror": 3508,
      "key": 3509,
      "Ġextra": 3510,
      "Ġcivil": 3511,
      "ĠWould": 3512,
      "Ġcommon": 3513,
      "Ġboys": 3514,
      "Ġdear": 3515,
      "cher": 3516,
      "ĠInstead": 3517,
      "Ġlanded": 3518,
      "aning": 3519,
      "Ġdrunk": 3520,
      "Ġmistake": 3521,
      "Ġ``...": 3522,
      "Ġwel": 3523,
      "reme": 3524,
      "Ġgras": 3525,
      "Ġcraw": 3526,
      "Ġtap": 3527,
      "iter": 3528,
      "Ġpaid": 3529,
      "Ġwet": 3530,
      "Ġpure": 3531,
      "Ġdifficult": 3532,
      "Ġnor": 3533,
      "what": 3534,
      "Ġident": 3535,
      "Ġban": 3536,
      "ĠCha": 3537,
      "Ġaccount": 3538,
      "bing": 3539,
      "bby": 3540,
      "Ġexcl": 3541,
      "eping": 3542,
      "Ġregret": 3543,
      "Ġdestroyed": 3544,
      "Ġfrown": 3545,
      "Ġheaded": 3546,
      "Ġgreet": 3547,
      "af": 3548,
      "Ġcarried": 3549,
      "Ġwooden": 3550,
      "olved": 3551,
      "Ġrele": 3552,
      "Ġtalked": 3553,
      "pper": 3554,
      "ivid": 3555,
      "ids": 3556,
      "Ġglasses": 3557,
      "Ġbeer": 3558,
      "Ġconsidered": 3559,
      "Ġmostly": 3560,
      "Ġoppos": 3561,
      "ĠGen": 3562,
      "Ġlock": 3563,
      "Ġtype": 3564,
      "Ġlikely": 3565,
      "ĠMart": 3566,
      "Ġrushed": 3567,
      "ench": 3568,
      "Ġ15": 3569,
      "Ġsouls": 3570,
      "Ġhtt": 3571,
      "Ġmeaning": 3572,
      "Ġdiscovered": 3573,
      "inked": 3574,
      "Ġforehead": 3575,
      "Ġstruck": 3576,
      "Ġglow": 3577,
      "aming": 3578,
      "Ġsecurity": 3579,
      "under": 3580,
      "Ġguards": 3581,
      "ĠSteve": 3582,
      "Ġgods": 3583,
      "aws": 3584,
      "?'": 3585,
      "umped": 3586,
      "Ġrout": 3587,
      "Ġtrave": 3588,
      "You": 3589,
      "par": 3590,
      "uced": 3591,
      "ĠNever": 3592,
      "Ġdiv": 3593,
      "Ġmissed": 3594,
      "Ġpatient": 3595,
      "Ġaccom": 3596,
      "Ġwhether": 3597,
      "Ġseven": 3598,
      "Ġmuttered": 3599,
      "Ġbal": 3600,
      "ĠEach": 3601,
      "ĠAN": 3602,
      "Ġawake": 3603,
      "Ġintellig": 3604,
      "Ġshape": 3605,
      "Ġincre": 3606,
      "Ġvisit": 3607,
      "llen": 3608,
      "ective": 3609,
      "Ġimage": 3610,
      "Ġoffer": 3611,
      "Ġband": 3612,
      "attered": 3613,
      "tte": 3614,
      "Ġhol": 3615,
      "Ġsimilar": 3616,
      "ĠHa": 3617,
      "Ġcollege": 3618,
      "VE": 3619,
      "Ġtaste": 3620,
      "ĠGeor": 3621,
      "Ġpublic": 3622,
      "ios": 3623,
      "________________________________": 3624,
      "Ġtongue": 3625,
      "Ġpet": 3626,
      "Ġtrick": 3627,
      "Ġslid": 3628,
      "Ġcreate": 3629,
      "inted": 3630,
      "Ġincl": 3631,
      "Ġshat": 3632,
      "Ġgal": 3633,
      "Ġbelieved": 3634,
      "Ġpred": 3635,
      "ifer": 3636,
      "bert": 3637,
      "Ġletting": 3638,
      "Ġhanging": 3639,
      "Ġpin": 3640,
      "Ġrough": 3641,
      "ĠYet": 3642,
      "ral": 3643,
      "Ġhost": 3644,
      "omes": 3645,
      "ĠBar": 3646,
      "Ġinsp": 3647,
      "Ġnames": 3648,
      "ĠEn": 3649,
      "ĠPeter": 3650,
      "cul": 3651,
      "ĠDes": 3652,
      "Ġmurder": 3653,
      "Ġdestroy": 3654,
      "Ġgrown": 3655,
      "ĠIm": 3656,
      "udd": 3657,
      "Ġglance": 3658,
      "Ġhidden": 3659,
      "Ġliter": 3660,
      "Ġmot": 3661,
      "Ġpossibly": 3662,
      "Ġpark": 3663,
      "Ġlung": 3664,
      "Ġlistening": 3665,
      "Ġbusy": 3666,
      "Ġla": 3667,
      "aches": 3668,
      "ĠChe": 3669,
      "Ġpalm": 3670,
      "Th": 3671,
      "Ġglad": 3672,
      "itive": 3673,
      "Ġshrugged": 3674,
      "ument": 3675,
      "Ġdecision": 3676,
      "Ġteacher": 3677,
      "Ġgolden": 3678,
      "ential": 3679,
      "Ġputting": 3680,
      "gger": 3681,
      "Ġconscious": 3682,
      "imin": 3683,
      "Ġswall": 3684,
      "Ġtick": 3685,
      "Ġvoices": 3686,
      "wise": 3687,
      "ĠThree": 3688,
      "Ġsugg": 3689,
      "orted": 3690,
      "Ġunderstood": 3691,
      "Ġsurrounded": 3692,
      "ortun": 3693,
      "andom": 3694,
      "Ġnamed": 3695,
      "Ġlou": 3696,
      "Ġarmor": 3697,
      "ilities": 3698,
      "Ġgreatest": 3699,
      "Ġeating": 3700,
      "Ġarmy": 3701,
      "Ġcow": 3702,
      "Ġrang": 3703,
      "ffic": 3704,
      "Ġallow": 3705,
      "Ġstab": 3706,
      "Ġshake": 3707,
      "Ġpersonal": 3708,
      "end": 3709,
      "ival": 3710,
      "Ġpier": 3711,
      "Ġshadows": 3712,
      "Ġdeterm": 3713,
      "Ġpit": 3714,
      "Ġmilitary": 3715,
      "Ġslammed": 3716,
      "Ġprodu": 3717,
      "Ġthroughout": 3718,
      "Ġliqu": 3719,
      "Ġscar": 3720,
      "ĠOut": 3721,
      "Ġslipped": 3722,
      "known": 3723,
      "Ġcust": 3724,
      "pecially": 3725,
      "Ġsubject": 3726,
      "Ġbones": 3727,
      "ĠMike": 3728,
      "Ġclut": 3729,
      "Ġstro": 3730,
      "Ġmajor": 3731,
      "Ġsne": 3732,
      "Ġfully": 3733,
      "asy": 3734,
      "ĠOver": 3735,
      "Ġwrapped": 3736,
      "iens": 3737,
      "Ġgift": 3738,
      "Ġdevice": 3739,
      "Ġmult": 3740,
      "Ġleather": 3741,
      "Ġasks": 3742,
      "Ġsac": 3743,
      "umble": 3744,
      "ĠTell": 3745,
      "Ġpsy": 3746,
      "Ġsleeping": 3747,
      "ĠEd": 3748,
      "ĠBill": 3749,
      "Ġanimals": 3750,
      "Ġorgan": 3751,
      "Ġghost": 3752,
      "Ġinnoc": 3753,
      "erved": 3754,
      "Ġuh": 3755,
      "ĠApp": 3756,
      "Ġflat": 3757,
      "ension": 3758,
      "Ġpresence": 3759,
      "Ġespecially": 3760,
      "Ġunable": 3761,
      "Ġaim": 3762,
      "Ġdumb": 3763,
      "Ġmonst": 3764,
      "Ġ30": 3765,
      "icle": 3766,
      "iring": 3767,
      "Ġwondering": 3768,
      "iant": 3769,
      "Ġfinding": 3770,
      "Ġbreaking": 3771,
      "che": 3772,
      "Ġharder": 3773,
      "Ġalarm": 3774,
      "apers": 3775,
      "Ġentirely": 3776,
      "Ġtouched": 3777,
      "Ġcheek": 3778,
      "Ġvideo": 3779,
      "Ġexperien": 3780,
      "Ġvol": 3781,
      "Ġskull": 3782,
      "Ġhearing": 3783,
      "Ġbother": 3784,
      "Ġbullet": 3785,
      "Ġappreci": 3786,
      "met": 3787,
      "Ġlat": 3788,
      "Ġport": 3789,
      "Ġfrozen": 3790,
      "Ġfac": 3791,
      "Ġsoftly": 3792,
      "Ġpassing": 3793,
      "Ġpromise": 3794,
      "Ġsmir": 3795,
      "Ġconfusion": 3796,
      "Ġconnect": 3797,
      "Ġshield": 3798,
      "Ġannoun": 3799,
      "Ġalthough": 3800,
      "Ġaband": 3801,
      "Ġjacket": 3802,
      "gest": 3803,
      "rid": 3804,
      "Ġrandom": 3805,
      "Ġnecess": 3806,
      "Ġswear": 3807,
      "bl": 3808,
      "Ġhealth": 3809,
      "Ġfort": 3810,
      "iles": 3811,
      "Ġbound": 3812,
      "ĠUh": 3813,
      "Ġbank": 3814,
      "ĠSer": 3815,
      "Ġdangerous": 3816,
      "Ġsilver": 3817,
      "Ġeternity": 3818,
      "Ġfired": 3819,
      "Ġplane": 3820,
      "Ġshare": 3821,
      "Ġoccasion": 3822,
      "Ġtruck": 3823,
      "Ġfist": 3824,
      "Ġkicked": 3825,
      "Ġ201": 3826,
      "Ġens": 3827,
      "rated": 3828,
      "ĠRuss": 3829,
      "Ġavoid": 3830,
      "Ġmountain": 3831,
      "pes": 3832,
      "Ġrelax": 3833,
      "rage": 3834,
      "kward": 3835,
      "Ġentr": 3836,
      "Ġrage": 3837,
      "ĠThom": 3838,
      "Ġje": 3839,
      "Ġchoose": 3840,
      "Ġvillage": 3841,
      "istic": 3842,
      "Ġrare": 3843,
      "ker": 3844,
      "Ġocean": 3845,
      "ĠGer": 3846,
      "icul": 3847,
      "Ġest": 3848,
      "Ġcharacter": 3849,
      "Ġaside": 3850,
      "Ġyounger": 3851,
      "Ġya": 3852,
      "Ġjoin": 3853,
      "Ġsociety": 3854,
      "Ġhundreds": 3855,
      "Ġlands": 3856,
      "Ġgathered": 3857,
      "Ġmovie": 3858,
      "Ġtun": 3859,
      "Ġmask": 3860,
      "Ġevening": 3861,
      "eled": 3862,
      "Ġcars": 3863,
      "Ġcigarette": 3864,
      "ites": 3865,
      "Ġtent": 3866,
      "Ġshoes": 3867,
      "Ġcave": 3868,
      "Ġrespons": 3869,
      "Ġhoped": 3870,
      "Ġbecoming": 3871,
      "Ġvictim": 3872,
      "ĠIS": 3873,
      "Ġchuckled": 3874,
      "Ġbloody": 3875,
      "Ġsmooth": 3876,
      "ĠSomeone": 3877,
      "osen": 3878,
      "fl": 3879,
      "Ġlouder": 3880,
      "Ġriver": 3881,
      "Ġconv": 3882,
      "Ġships": 3883,
      "ĠAmerica": 3884,
      "Ġfirm": 3885,
      "Ġdecide": 3886,
      "ĠBen": 3887,
      "ĠAdam": 3888,
      "Ġblond": 3889,
      "Ġrise": 3890,
      "Ġgrip": 3891,
      "ule": 3892,
      "Ġaction": 3893,
      "ooked": 3894,
      "Ġvarious": 3895,
      "Ġfault": 3896,
      "lock": 3897,
      "Ġorange": 3898,
      "Ġtu": 3899,
      "stairs": 3900,
      "Ġreb": 3901,
      "Ġwalks": 3902,
      "Ġbelong": 3903,
      "Ġbitch": 3904,
      "Ġwrote": 3905,
      "Ġpriv": 3906,
      "Ġforgot": 3907,
      "pet": 3908,
      "Ġawkward": 3909,
      "Ġdrove": 3910,
      "Ġcracked": 3911,
      "erial": 3912,
      "Ġdriver": 3913,
      "bers": 3914,
      "now": 3915,
      "Ġlunch": 3916,
      "Ġsatisf": 3917,
      "AM": 3918,
      "Ġpresident": 3919,
      "inging": 3920,
      "iest": 3921,
      "hip": 3922,
      "Ġrelief": 3923,
      "Ġspeech": 3924,
      "Ġmix": 3925,
      "Ġanimal": 3926,
      "Ġapparently": 3927,
      "Ġlad": 3928,
      "Ġstranger": 3929,
      "Ġthanks": 3930,
      "Ġmeat": 3931,
      "Ġtwisted": 3932,
      "ĠWithout": 3933,
      "for": 3934,
      "Ġinterrupted": 3935,
      "ĠGeorge": 3936,
      "Ġlower": 3937,
      "Ġrot": 3938,
      "Ġsilently": 3939,
      "Ġiron": 3940,
      "Ġblow": 3941,
      "ama": 3942,
      "Ġshowing": 3943,
      "well": 3944,
      "inary": 3945,
      "Ġant": 3946,
      "OM": 3947,
      "Ġblast": 3948,
      "ĠHuman": 3949,
      "Ġden": 3950,
      "Ġyours": 3951,
      "Ġsentence": 3952,
      "Ġmyster": 3953,
      "Ġharm": 3954,
      "Ġenter": 3955,
      "Ġclaim": 3956,
      "uh": 3957,
      "iction": 3958,
      "Ġrules": 3959,
      "tle": 3960,
      "ĠEvent": 3961,
      "Ġactiv": 3962,
      "11": 3963,
      "loy": 3964,
      "Ġwings": 3965,
      "Ġdata": 3966,
      "rop": 3967,
      "ander": 3968,
      "Ġsell": 3969,
      "Ġsides": 3970,
      "Ġsource": 3971,
      "uthor": 3972,
      "Ġstage": 3973,
      "ĠOther": 3974,
      "Ġparts": 3975,
      "Ġemer": 3976,
      "Ġobviously": 3977,
      "Ġamazing": 3978,
      "ĠHo": 3979,
      "ĠShit": 3980,
      "ifying": 3981,
      "Ġcrossed": 3982,
      "Ġsending": 3983,
      "Ġangel": 3984,
      "uries": 3985,
      "Ġreceived": 3986,
      "con": 3987,
      "Ġhiding": 3988,
      "Ġbought": 3989,
      "Ġnatural": 3990,
      "Ġknock": 3991,
      "Ġparticular": 3992,
      "Ġexplained": 3993,
      "Ġpants": 3994,
      "ĠAmerican": 3995,
      "ET": 3996,
      "lear": 3997,
      "rap": 3998,
      "Ġoffered": 3999,
      "Ġwouldn": 4000,
      "Ġ$": 4001,
      "Ġsmiles": 4002,
      "Ġcompan": 4003,
      "Ġremoved": 4004,
      "lie": 4005,
      "Ġrifle": 4006,
      "ese": 4007,
      "Ġfem": 4008,
      "ĠRem": 4009,
      "Ġmic": 4010,
      "inated": 4011,
      "Ġspin": 4012,
      "Ġpist": 4013,
      "ensive": 4014,
      "neath": 4015,
      "terday": 4016,
      "tended": 4017,
      "Ġwaves": 4018,
      "essor": 4019,
      "Ġda": 4020,
      "Ġbridge": 4021,
      "Ġopposite": 4022,
      "ĠGl": 4023,
      "Ġloose": 4024,
      "Ġ0": 4025,
      "Ġknight": 4026,
      "uct": 4027,
      "Ġmaterial": 4028,
      "Ġnowhere": 4029,
      "Ġwiped": 4030,
      "time": 4031,
      "Ġuncom": 4032,
      "ept": 4033,
      "Ġarr": 4034,
      "Ġrobot": 4035,
      "uing": 4036,
      "Ġobvious": 4037,
      "ĠSoon": 4038,
      "Ġpictures": 4039,
      "Ġliterally": 4040,
      "Ġthirty": 4041,
      "Ġmovement": 4042,
      "Ġhorse": 4043,
      "Ġvac": 4044,
      "Ġcustom": 4045,
      "raph": 4046,
      "Ġdull": 4047,
      "Ġspo": 4048,
      "ĠJoe": 4049,
      "Ġdirty": 4050,
      "Ġgeneral": 4051,
      "ĠBob": 4052,
      "incess": 4053,
      "Ġwaved": 4054,
      "ique": 4055,
      "What": 4056,
      "Ġinstantly": 4057,
      "Ġfish": 4058,
      "ĠAgain": 4059,
      "ests": 4060,
      "book": 4061,
      "lection": 4062,
      "ularly": 4063,
      "Ġreaching": 4064,
      "Ġwaste": 4065,
      "Ġremain": 4066,
      "He": 4067,
      "Ġrush": 4068,
      "ĠJon": 4069,
      "Ġminds": 4070,
      "ĠHarry": 4071,
      "Ġinstant": 4072,
      "Ġrub": 4073,
      "ĠSim": 4074,
      "Ġplastic": 4075,
      "Ġflight": 4076,
      "Ġloss": 4077,
      "ĠNobody": 4078,
      "Ġhoriz": 4079,
      "Ġtwice": 4080,
      "ĠDamn": 4081,
      "Ġbored": 4082,
      "Ġjudge": 4083,
      "Ġguns": 4084,
      "Ġresearch": 4085,
      "Ġrich": 4086,
      "Ġblinked": 4087,
      "Ġroof": 4088,
      "Ġdeb": 4089,
      "Ġconsider": 4090,
      "illing": 4091,
      "Ġpolit": 4092,
      "Ġoccur": 4093,
      "off": 4094,
      "ember": 4095,
      "Ġgodd": 4096,
      "Ġwear": 4097,
      "ancy": 4098,
      "ĠAI": 4099,
      "Ġknocked": 4100,
      "Ġgut": 4101,
      "Ġbigger": 4102,
      "rog": 4103,
      "Ġbuzz": 4104,
      "Ġneighbor": 4105,
      "Ġpistol": 4106,
      "ĠThough": 4107,
      "Ġblock": 4108,
      "Ġlog": 4109,
      "AL": 4110,
      "Ġpink": 4111,
      "Ġalley": 4112,
      "ĠWhatever": 4113,
      "Ġflood": 4114,
      "ĠEventually": 4115,
      "ĠUS": 4116,
      "Ġpul": 4117,
      "Ġbeard": 4118,
      "Ġsetting": 4119,
      "ares": 4120,
      "Ġcircle": 4121,
      "ĠOk": 4122,
      "vit": 4123,
      "ĠFather": 4124,
      "ĠComm": 4125,
      "Ġeld": 4126,
      "ocking": 4127,
      "Ġtail": 4128,
      "Ġglowing": 4129,
      "iel": 4130,
      "Ġver": 4131,
      "Ġgives": 4132,
      "sm": 4133,
      "Ġpod": 4134,
      "Ġcheeks": 4135,
      "Ġwitness": 4136,
      "Ġdriving": 4137,
      "Ġ100": 4138,
      "zing": 4139,
      "ĠHen": 4140,
      "Ġphysical": 4141,
      "Ġreflect": 4142,
      "Ġagreed": 4143,
      "Ġshuff": 4144,
      "ĠDO": 4145,
      "vil": 4146,
      "Ġwarning": 4147,
      "Ġcabin": 4148,
      "Ġride": 4149,
      "ns": 4150,
      "ĠMary": 4151,
      "ĠDark": 4152,
      "Ġlungs": 4153,
      "Ġinvest": 4154,
      "Ġcausing": 4155,
      "Ġpointing": 4156,
      "Ġgather": 4157,
      "urch": 4158,
      "Ġreplaced": 4159,
      "ĠCould": 4160,
      "shit": 4161,
      "fast": 4162,
      "Ġpause": 4163,
      "lebr": 4164,
      "ĠIT": 4165,
      "Ġpile": 4166,
      "ĠMars": 4167,
      "Ġwrist": 4168,
      "Ġpiss": 4169,
      "uses": 4170,
      "Ġsearch": 4171,
      "do": 4172,
      "Ġourselves": 4173,
      "ĠSil": 4174,
      "Ġimmortal": 4175,
      "Ġamb": 4176,
      "Ġmatch": 4177,
      "Ġpool": 4178,
      "Ġfrust": 4179,
      "ify": 4180,
      "Ġbeauty": 4181,
      "Ġtrigger": 4182,
      "Ġhigher": 4183,
      "Ġwished": 4184,
      "Ġhood": 4185,
      "Ġfloating": 4186,
      "fortunately": 4187,
      "HH": 4188,
      "Ġpushing": 4189,
      "Ġechoed": 4190,
      "Ġextreme": 4191,
      "Ġpray": 4192,
      "ĠSec": 4193,
      "Ġcult": 4194,
      "Ġsoldier": 4195,
      "Ġdoesn": 4196,
      "Ġcaptain": 4197,
      "UCK": 4198,
      "cast": 4199,
      "Ġframe": 4200,
      "Ġflick": 4201,
      "Ġgigg": 4202,
      "Ġopportun": 4203,
      "Ġrepeated": 4204,
      "Ġelev": 4205,
      "Ġwhose": 4206,
      "eling": 4207,
      "ault": 4208,
      "Ġremaining": 4209,
      "ibility": 4210,
      "Ġdrinking": 4211,
      "Ġteen": 4212,
      "atch": 4213,
      "itude": 4214,
      "Ġunderneath": 4215,
      "Ġprim": 4216,
      "Ġrelig": 4217,
      "Ġadvent": 4218,
      "itement": 4219,
      "acle": 4220,
      "Ġshel": 4221,
      "Ġflames": 4222,
      "Ġsepar": 4223,
      "Ġsquee": 4224,
      "Ġhorrible": 4225,
      "Ġanywhere": 4226,
      "Ġsummer": 4227,
      "Ġripped": 4228,
      "Ġmurd": 4229,
      "Ġgrad": 4230,
      "Ġbroad": 4231,
      "ĠJake": 4232,
      "Ġproblems": 4233,
      "cles": 4234,
      "vision": 4235,
      "ĠLife": 4236,
      "ĠBo": 4237,
      "ĠOF": 4238,
      "ences": 4239,
      "Ġseemingly": 4240,
      "ctors": 4241,
      "Ġdisappear": 4242,
      "Ġgames": 4243,
      "Ġcharge": 4244,
      "Ġunknown": 4245,
      "Ġgrim": 4246,
      "chie": 4247,
      "Ġobl": 4248,
      "Ġjourney": 4249,
      "Ġaliens": 4250,
      "ĠInd": 4251,
      "eless": 4252,
      "Ġdistant": 4253,
      "Ġstands": 4254,
      "Ġwarmth": 4255,
      "ores": 4256,
      "Ġidiot": 4257,
      "Ġrespect": 4258,
      "Ġprevious": 4259,
      "Ġchosen": 4260,
      "ĠCr": 4261,
      "ddy": 4262,
      "Ġinit": 4263,
      "Ġswung": 4264,
      "back": 4265,
      "essed": 4266,
      "Ġinha": 4267,
      "ana": 4268,
      "âĢľ": 4269,
      "Ġwid": 4270,
      "Ġcalls": 4271,
      "Ġadded": 4272,
      "Ġgirlf": 4273,
      "Ġpour": 4274,
      "Ġsolid": 4275,
      "Ġchose": 4276,
      "fety": 4277,
      "agged": 4278,
      "Ġquar": 4279,
      "Ġperform": 4280,
      "Ġast": 4281,
      "ulf": 4282,
      "uke": 4283,
      "Ġcelebr": 4284,
      "Ġentrance": 4285,
      "Ġwiz": 4286,
      "Ġshifted": 4287,
      "Ġhorr": 4288,
      "Ġtraining": 4289,
      "Ġlosing": 4290,
      "ĠMrs": 4291,
      "Ġintro": 4292,
      "usting": 4293,
      "Ġchat": 4294,
      "arden": 4295,
      "Ġindivid": 4296,
      "ĠWhich": 4297,
      "Ġtorn": 4298,
      "ĠJeff": 4299,
      "ĠLooking": 4300,
      "ĠPaul": 4301,
      "ĠBlack": 4302,
      "Ġdistract": 4303,
      "Ġmembers": 4304,
      "ĠGreg": 4305,
      "Ġ11": 4306,
      "ĠIN": 4307,
      "eding": 4308,
      "Ġexcitement": 4309,
      "Ġaver": 4310,
      "ĠGrand": 4311,
      "Ġbang": 4312,
      "Ġdut": 4313,
      "Ġcrime": 4314,
      "Ġnightm": 4315,
      "hol": 4316,
      "Ġcode": 4317,
      "Ġcraft": 4318,
      "Ġeasier": 4319,
      "Ġtaught": 4320,
      "Ġstumbled": 4321,
      "Ġok": 4322,
      "ache": 4323,
      "Ġvir": 4324,
      "Ġbomb": 4325,
      "Ġmanage": 4326,
      "Ġcleared": 4327,
      "ĠThomas": 4328,
      "Ġwilling": 4329,
      "aps": 4330,
      "Ġchallen": 4331,
      "ĠDoctor": 4332,
      "mas": 4333,
      "Ġlarger": 4334,
      "Ġfocused": 4335,
      "antic": 4336,
      "Ġsink": 4337,
      "ĠMa": 4338,
      "Ġstretched": 4339,
      "Ġexpecting": 4340,
      "Ġcourt": 4341,
      "Ġhardly": 4342,
      "Ġspirit": 4343,
      "arily": 4344,
      "Ġdamage": 4345,
      "ĠEnglish": 4346,
      "Ġ--''": 4347,
      "ĠHeaven": 4348,
      "uclear": 4349,
      "Ġembr": 4350,
      "Ġshocked": 4351,
      "Ġfellow": 4352,
      "ms": 4353,
      "Ġtea": 4354,
      "Ġtort": 4355,
      "Ġfreed": 4356,
      "Ġnights": 4357,
      "Ġscience": 4358,
      "father": 4359,
      "Ġgate": 4360,
      "isten": 4361,
      "ĠJen": 4362,
      "Ġ18": 4363,
      "Ġsearching": 4364,
      "ppy": 4365,
      "la": 4366,
      "bye": 4367,
      "Ġrelation": 4368,
      "lin": 4369,
      "reeze": 4370,
      "reddit": 4371,
      "ica": 4372,
      "ĠDoes": 4373,
      "vity": 4374,
      "Ġwarri": 4375,
      "wh": 4376,
      "Ġboring": 4377,
      "Ġgalax": 4378,
      "you": 4379,
      "Ġevents": 4380,
      "view": 4381,
      "Ġbegun": 4382,
      "ĠâĢĿ.": 4383,
      "Ġprec": 4384,
      "Ġboun": 4385,
      "Ġendless": 4386,
      "Ġgle": 4387,
      "Ġhorizon": 4388,
      "Ġpapers": 4389,
      "Ġscientists": 4390,
      "Ġdisp": 4391,
      "ĠReally": 4392,
      "Ġwoods": 4393,
      "Ġcurious": 4394,
      "steps": 4395,
      "otions": 4396,
      "Ġsafety": 4397,
      "Ġanx": 4398,
      "Ġcollapsed": 4399,
      "Ġformed": 4400,
      "Ġbol": 4401,
      "ĠTake": 4402,
      "Ġservice": 4403,
      "ĠAnyway": 4404,
      "Ġet": 4405,
      "Ġnod": 4406,
      "Ġgrinned": 4407,
      "Ġsin": 4408,
      "ĠLucifer": 4409,
      "Ġdoc": 4410,
      "Ġdamned": 4411,
      "gn": 4412,
      "aging": 4413,
      "Ġtremb": 4414,
      "Ġcareful": 4415,
      "Ġbreathe": 4416,
      "Ġthrown": 4417,
      "Ġtit": 4418,
      "ĠSlow": 4419,
      "arted": 4420,
      "ĠDay": 4421,
      "ocol": 4422,
      "LE": 4423,
      "ĠHit": 4424,
      "Ġthrowing": 4425,
      "ĠUnited": 4426,
      "Ġpopulation": 4427,
      "ĠTurn": 4428,
      "Ġinternet": 4429,
      "cture": 4430,
      "itched": 4431,
      "Ġdragged": 4432,
      "ĠME": 4433,
      "ifting": 4434,
      "Ġsettled": 4435,
      "Ġske": 4436,
      "TH": 4437,
      "Ġindividual": 4438,
      "Ġthinks": 4439,
      "Ġdi": 4440,
      "Ġhill": 4441,
      "Ġassh": 4442,
      "rench": 4443,
      "Ġexec": 4444,
      "case": 4445,
      "olution": 4446,
      "Ġrolling": 4447,
      "Ġliquid": 4448,
      "Ġneg": 4449,
      "hetic": 4450,
      "Ġpoints": 4451,
      "Ġmarried": 4452,
      "Ġine": 4453,
      "Ġproceed": 4454,
      "Ġrising": 4455,
      "rete": 4456,
      "Ġegg": 4457,
      "Ġdevil": 4458,
      "ĠJason": 4459,
      "not": 4460,
      "Ġpurple": 4461,
      "Ġhungry": 4462,
      "erson": 4463,
      "Ġanswers": 4464,
      "Ġjaw": 4465,
      "Ġrecall": 4466,
      "ĠMany": 4467,
      "Ġstruggled": 4468,
      "ĠMag": 4469,
      "Ġune": 4470,
      "Ġadmit": 4471,
      "Ġapolog": 4472,
      "Ġyesterday": 4473,
      "ĠUp": 4474,
      "Ġenjoyed": 4475,
      "Ġbastard": 4476,
      "Ġabsolutely": 4477,
      "Ġglim": 4478,
      "Ġsmaller": 4479,
      "Ġthumb": 4480,
      "Ġbuildings": 4481,
      "Ġdesce": 4482,
      "Ġhappiness": 4483,
      "ĠHenry": 4484,
      "oted": 4485,
      "Ġshower": 4486,
      "Ġbackwards": 4487,
      "Ġsacr": 4488,
      "rian": 4489,
      "Ġinclud": 4490,
      "Ġtask": 4491,
      "Ġvoid": 4492,
      "Ġbuck": 4493,
      "umps": 4494,
      "Ġrecently": 4495,
      "ĠHad": 4496,
      "Ġgirlfriend": 4497,
      "Ġdelic": 4498,
      "pha": 4499,
      "Ġotherwise": 4500,
      "Ġbrothers": 4501,
      "ĠJan": 4502,
      "Ġgrave": 4503,
      "Ġleading": 4504,
      "Ġdise": 4505,
      "Ġbeings": 4506,
      "Ġkeys": 4507,
      "Ġwelcome": 4508,
      "Ġneither": 4509,
      "ĠPat": 4510,
      "ĠHE": 4511,
      "Ġexclaimed": 4512,
      "ption": 4513,
      "Ġcash": 4514,
      "Ġremains": 4515,
      "Ġ50": 4516,
      "Ġcrash": 4517,
      "Ġignored": 4518,
      "Ġauthor": 4519,
      "iform": 4520,
      "Ġshift": 4521,
      "www": 4522,
      "Ġsigns": 4523,
      "Ġresist": 4524,
      "ST": 4525,
      "ators": 4526,
      "Ġbunch": 4527,
      "Ġdom": 4528,
      "ems": 4529,
      "Ġuncomfort": 4530,
      "action": 4531,
      "Ġvast": 4532,
      "ĠDra": 4533,
      "itions": 4534,
      "oop": 4535,
      "Ġstronger": 4536,
      "Ġmortal": 4537,
      "Ġfeat": 4538,
      "Ġbul": 4539,
      "Ġzomb": 4540,
      "Ġmachines": 4541,
      "anding": 4542,
      "Ġfol": 4543,
      "ĠSince": 4544,
      "ĠWal": 4545,
      "Ġassist": 4546,
      "Ġdozen": 4547,
      "ero": 4548,
      "Ġsplit": 4549,
      "ĠJul": 4550,
      "Ġsurely": 4551,
      "mosp": 4552,
      "ĠCharlie": 4553,
      "Ġcook": 4554,
      "Ġaffect": 4555,
      "Ġsocial": 4556,
      "ipe": 4557,
      "Ġcontract": 4558,
      "Ġlistened": 4559,
      "und": 4560,
      "ashes": 4561,
      "Ġbreakfast": 4562,
      "Ġcough": 4563,
      "Ġrum": 4564,
      "Ġrapid": 4565,
      "sc": 4566,
      "Ġvers": 4567,
      "ham": 4568,
      "Ġappears": 4569,
      "Ġimagined": 4570,
      "Ġpoured": 4571,
      "ĠCa": 4572,
      "Ġate": 4573,
      "Ġindic": 4574,
      "Ġheavily": 4575,
      "Ġdesperate": 4576,
      "Ġcart": 4577,
      "Ġutter": 4578,
      "Ġcorpse": 4579,
      "ented": 4580,
      "Ġprevent": 4581,
      "Ġdrown": 4582,
      "Ġbelt": 4583,
      "Ġflashed": 4584,
      "lled": 4585,
      "Ġcomfortable": 4586,
      "UT": 4587,
      "Ġstaff": 4588,
      "Ġpattern": 4589,
      "Ġnurse": 4590,
      "ĠHA": 4591,
      "ĠNone": 4592,
      "ĠMc": 4593,
      "Ġconstant": 4594,
      "Ġdouble": 4595,
      "Ġdestruction": 4596,
      "Ġdecl": 4597,
      "eg": 4598,
      "Ġnet": 4599,
      "Ġvib": 4600,
      "Ġbone": 4601,
      "ĠMor": 4602,
      "Ġabandoned": 4603,
      "',": 4604,
      "ara": 4605,
      "ĠCol": 4606,
      "Ġgray": 4607,
      "Ġfant": 4608,
      "Ġformer": 4609,
      "Ġuniform": 4610,
      "Ġdesign": 4611,
      "Ġinstinct": 4612,
      "Ġletters": 4613,
      "Ġindeed": 4614,
      "Ġsav": 4615,
      "Ġshame": 4616,
      "Ġexchan": 4617,
      "Ġsuic": 4618,
      "Ġdrawn": 4619,
      "itty": 4620,
      "Ġbite": 4621,
      "asure": 4622,
      "riting": 4623,
      "Ġopportunity": 4624,
      "noon": 4625,
      "Ġhous": 4626,
      "Ġstudents": 4627,
      "Ġemotions": 4628,
      "Ġnecessary": 4629,
      "Ġrule": 4630,
      "Ġblonde": 4631,
      "Ġraise": 4632,
      "Ġmillions": 4633,
      "ĠBet": 4634,
      "ours": 4635,
      "aker": 4636,
      "Ġconvin": 4637,
      "Ġatmosp": 4638,
      "Ġhadn": 4639,
      "Ġbreeze": 4640,
      "iosity": 4641,
      "phone": 4642,
      "Ġplate": 4643,
      "Ġcarrying": 4644,
      "Ġinsane": 4645,
      "iber": 4646,
      "ĠMiss": 4647,
      "Ġdisappoint": 4648,
      "Ġdecades": 4649,
      "Ġforces": 4650,
      "Ġslip": 4651,
      "ĠMatt": 4652,
      "Ġstrike": 4653,
      "life": 4654,
      "Ġactions": 4655,
      "Ġimpact": 4656,
      "ĠBat": 4657,
      "oph": 4658,
      "This": 4659,
      "Ġflipped": 4660,
      "Ġbrow": 4661,
      "rit": 4662,
      "ĠJac": 4663,
      "kin": 4664,
      "Ġkick": 4665,
      "Ġdetails": 4666,
      "ĠFUCK": 4667,
      "Ġshared": 4668,
      "Ġtechn": 4669,
      "athan": 4670,
      "Ġprod": 4671,
      "ĠWorld": 4672,
      "Ġunlike": 4673,
      "Ġsque": 4674,
      "imate": 4675,
      "Ġregard": 4676,
      "Ġunderstanding": 4677,
      "ĠTy": 4678,
      "Ġchin": 4679,
      "Ġconcer": 4680,
      "Ġchamber": 4681,
      "Ġconsciousness": 4682,
      "icing": 4683,
      "elt": 4684,
      "Ġfootsteps": 4685,
      "etic": 4686,
      "Ġending": 4687,
      "Ġchaos": 4688,
      "OW": 4689,
      "upt": 4690,
      "ĠStop": 4691,
      "Ġcloset": 4692,
      "Ġdance": 4693,
      "ĠSlowly": 4694,
      "Ġswitch": 4695,
      "ivers": 4696,
      "Ġdude": 4697,
      "bled": 4698,
      "itiz": 4699,
      "Ġpal": 4700,
      "Ġplans": 4701,
      "ads": 4702,
      "osh": 4703,
      "Ġmechan": 4704,
      "Ġoverw": 4705,
      "Ġparticularly": 4706,
      "house": 4707,
      "Ġworn": 4708,
      "ners": 4709,
      "Ġpressure": 4710,
      "Ġmonsters": 4711,
      "Ġaccess": 4712,
      "Ġwine": 4713,
      "ressive": 4714,
      "Ġdiss": 4715,
      "Ġends": 4716,
      "gy": 4717,
      "Ġwheel": 4718,
      "Ġwonderful": 4719,
      "mate": 4720,
      "Ġdread": 4721,
      "ĠOb": 4722,
      "Ġsummon": 4723,
      "Ġsits": 4724,
      "Ġhoney": 4725,
      "kind": 4726,
      "Ġtend": 4727,
      "ĠToo": 4728,
      "Ġnotes": 4729,
      "Ġslept": 4730,
      "ĠAnge": 4731,
      "Ġexit": 4732,
      "Ġplanned": 4733,
      "Ġveh": 4734,
      "Ġlap": 4735,
      "iance": 4736,
      "ĠRob": 4737,
      "str": 4738,
      "Ġenv": 4739,
      "Ġlanding": 4740,
      "ĠDesp": 4741,
      "Ġridicul": 4742,
      "Ġreleased": 4743,
      "ength": 4744,
      "Ġdoctors": 4745,
      "Ġmental": 4746,
      "ĠRep": 4747,
      "Ġrust": 4748,
      "lies": 4749,
      "ĠListen": 4750,
      "Ġbringing": 4751,
      "Ġnuclear": 4752,
      "Ġactual": 4753,
      "Ġemerg": 4754,
      "ĠGot": 4755,
      "Ġcontain": 4756,
      "Ġelevator": 4757,
      "asing": 4758,
      "Ġburied": 4759,
      "Ġreflection": 4760,
      "Ġdesperately": 4761,
      "Ġtied": 4762,
      "Ġstops": 4763,
      "Ġdoorway": 4764,
      "Ġachie": 4765,
      "ĠSw": 4766,
      "Ġbutt": 4767,
      "Ġjoined": 4768,
      "Ġconcrete": 4769,
      "Ġafternoon": 4770,
      "My": 4771,
      "ĠGO": 4772,
      "ĠRic": 4773,
      "ĠAND": 4774,
      "Ġisn": 4775,
      "atory": 4776,
      "ĠTer": 4777,
      "Ġtransl": 4778,
      "Ġcapable": 4779,
      "Ġinj": 4780,
      "ables": 4781,
      "Ġcities": 4782,
      "Ġflame": 4783,
      "Ġheading": 4784,
      "Ġseriously": 4785,
      "Ġdetail": 4786,
      "Ġdeeper": 4787,
      "Ġsuffering": 4788,
      "Ġcrit": 4789,
      "Ġlonely": 4790,
      "ference": 4791,
      "Ġdesire": 4792,
      "Ġbird": 4793,
      "Ġsquare": 4794,
      "ĠJimmy": 4795,
      "Ġeager": 4796,
      "ĠVery": 4797,
      "Ġcomplex": 4798,
      "Ġrisk": 4799,
      "Ġcentury": 4800,
      "Ġisland": 4801,
      "Ġpoison": 4802,
      "Ġhelmet": 4803,
      "Ġjer": 4804,
      "Ġagree": 4805,
      "Ġreminded": 4806,
      "Ġthrone": 4807,
      "Ġsurrounding": 4808,
      "Ġyelling": 4809,
      "ĠFine": 4810,
      "Ġboots": 4811,
      "Ġspun": 4812,
      "ĠUnt": 4813,
      "Ġdeserve": 4814,
      "Ġmagn": 4815,
      "Ġfright": 4816,
      "Ġfroze": 4817,
      "iple": 4818,
      "gar": 4819,
      "Ġcurse": 4820,
      "ann": 4821,
      "Ġshr": 4822,
      "arest": 4823,
      "Ġapproach": 4824,
      "ĠHitler": 4825,
      "Ġshouting": 4826,
      "Ġkingdom": 4827,
      "ĠLight": 4828,
      "Ġtells": 4829,
      "ĠMaster": 4830,
      "Ġplat": 4831,
      "Ġsurvived": 4832,
      "Ġnaked": 4833,
      "Ġmerely": 4834,
      "alf": 4835,
      "Ġblink": 4836,
      "Ġslee": 4837,
      "Ġrocks": 4838,
      "Ġham": 4839,
      "Ġdeg": 4840,
      "Ġai": 4841,
      "ĠST": 4842,
      "Ġcancer": 4843,
      "ii": 4844,
      "tery": 4845,
      "ĠChristmas": 4846,
      "Ġinterested": 4847,
      "ĠBlood": 4848,
      "Ġstudy": 4849,
      "Ġdifference": 4850,
      "Ġexperiment": 4851,
      "Ġsip": 4852,
      "Ġrubbed": 4853,
      "Ġevidence": 4854,
      "mit": 4855,
      "Ġtelevision": 4856,
      "Ġbillion": 4857,
      "ĠHel": 4858,
      "icy": 4859,
      "artment": 4860,
      "Ġcurt": 4861,
      "Ġstun": 4862,
      "ĠâĢ¦": 4863,
      "Ġbrill": 4864,
      "Ġtrail": 4865,
      "Ġorders": 4866,
      "Ġfal": 4867,
      "Ġshell": 4868,
      "ales": 4869,
      "Ġkeeps": 4870,
      "Ġcenturies": 4871,
      "Ġcruel": 4872,
      "Ġfaith": 4873,
      "Ġterrified": 4874,
      "ints": 4875,
      "Ġbirds": 4876,
      "Ġlip": 4877,
      "Ġimpro": 4878,
      "Ġtossed": 4879,
      "Ġinnocent": 4880,
      "Ġdemons": 4881,
      "Ġaccepted": 4882,
      "Ġmeal": 4883,
      "ĠMin": 4884,
      "ĠCor": 4885,
      "Ġclimbed": 4886,
      "Ġbeating": 4887,
      "Ġlies": 4888,
      "Ġaddress": 4889,
      "Ġpopped": 4890,
      "Ġhorn": 4891,
      "Ġatmosphere": 4892,
      "ĠHope": 4893,
      "........": 4894,
      "Ġconcern": 4895,
      "Ġordered": 4896,
      "bal": 4897,
      "ĠMother": 4898,
      "hem": 4899,
      "Ġtightly": 4900,
      "Ġignore": 4901,
      "Ġsees": 4902,
      "Ġsake": 4903,
      "ckets": 4904,
      "Ġclosing": 4905,
      "ĠâĢĿ,": 4906,
      "Ġlaying": 4907,
      "Ġflu": 4908,
      "apping": 4909,
      "Ġrecognize": 4910,
      "ugg": 4911,
      "Ġpromised": 4912,
      "Ġerupt": 4913,
      "Ġnervously": 4914,
      "ĠJerry": 4915,
      "ĠSuper": 4916,
      "anta": 4917,
      "Ġplain": 4918,
      "Ġbent": 4919,
      "min": 4920,
      "ĠOld": 4921,
      "aks": 4922,
      "Ġthunder": 4923,
      "ĠMon": 4924,
      "acked": 4925,
      "Ġaverage": 4926,
      "Ġpartner": 4927,
      "Ġsuspic": 4928,
      "ĠNorth": 4929,
      "Ġfreedom": 4930,
      "ĠJess": 4931,
      "ĠCal": 4932,
      "elve": 4933,
      "====": 4934,
      "Ġoriginal": 4935,
      "Ġsignal": 4936,
      "Ġdrug": 4937,
      "iod": 4938,
      "pan": 4939,
      "Ġnation": 4940,
      "hard": 4941,
      "Ġdesert": 4942,
      "Ġpulls": 4943,
      "Ġwinter": 4944,
      "Ġfalls": 4945,
      "Ġinte": 4946,
      "ĠEr": 4947,
      "Ġchick": 4948,
      "Ġblame": 4949,
      "Ġclicked": 4950,
      "mn": 4951,
      "Ġavail": 4952,
      "Ġgasped": 4953,
      "yl": 4954,
      "ĠBoth": 4955,
      "ishment": 4956,
      "yal": 4957,
      "ĠGeneral": 4958,
      "Ġworlds": 4959,
      "Ġhuh": 4960,
      "Ġideas": 4961,
      "Ġgalaxy": 4962,
      "uted": 4963,
      "ĠThing": 4964,
      "Ġshattered": 4965,
      "Ġexisted": 4966,
      "Ġbasement": 4967,
      "Ġunw": 4968,
      "Ġtore": 4969,
      "Ġresour": 4970,
      "agger": 4971,
      "Ġlaz": 4972,
      "Ġpace": 4973,
      "Ġantic": 4974,
      "Ġdollars": 4975,
      "Ġafford": 4976,
      "Ġassumed": 4977,
      "Ġillum": 4978,
      "oot": 4979,
      "ĠDespite": 4980,
      "Ġelectric": 4981,
      "Ġtie": 4982,
      "ĠAlthough": 4983,
      "iation": 4984,
      "eds": 4985,
      "elled": 4986,
      "Ġboat": 4987,
      "ĠRick": 4988,
      "Ġcared": 4989,
      "Ġpages": 4990,
      "ĠBack": 4991,
      "Ġpee": 4992,
      "20": 4993,
      "Ġsomewhat": 4994,
      "Ġdeeply": 4995,
      "Ġfeelings": 4996,
      "ĠNext": 4997,
      "Ġsteady": 4998,
      "elcome": 4999,
      "Ġfaced": 5000,
      "Ġdisplay": 5001,
      "Ġscri": 5002,
      "Ġfemale": 5003,
      "Ġspark": 5004,
      "amb": 5005,
      "Ġoverwhel": 5006,
      "Ġlocation": 5007,
      "mission": 5008,
      "Ġshining": 5009,
      "ĠBE": 5010,
      "Ġhitting": 5011,
      "~~~~": 5012,
      "Ġpride": 5013,
      "Ġmale": 5014,
      "Ġconcl": 5015,
      "ĠFred": 5016,
      "Ġmurm": 5017,
      "Ġrepres": 5018,
      "Ġawoke": 5019,
      "Ġtrapped": 5020,
      "Ġemploy": 5021,
      "erc": 5022,
      "asons": 5023,
      "Ġbeha": 5024,
      "urb": 5025,
      "walk": 5026,
      "Ġfucked": 5027,
      "Ġplanets": 5028,
      "ĠYork": 5029,
      "Ġfixed": 5030,
      "mo": 5031,
      "Ġpotential": 5032,
      "Ġbeach": 5033,
      "ases": 5034,
      "Ġmedic": 5035,
      "Ġscrew": 5036,
      "Ġep": 5037,
      "ĠUntil": 5038,
      "Ġbench": 5039,
      "Ġprove": 5040,
      "ĠStates": 5041,
      "Ġfacing": 5042,
      "We": 5043,
      "cus": 5044,
      "Ġfile": 5045,
      "ĠOK": 5046,
      "Ġrefused": 5047,
      "ĠHi": 5048,
      "Ġuseless": 5049,
      "Ġpicking": 5050,
      "..''": 5051,
      "Ġconcerned": 5052,
      "ception": 5053,
      "Ġbot": 5054,
      "Ġfan": 5055,
      "ĠGerman": 5056,
      "Ġclick": 5057,
      "arrass": 5058,
      "Ġgreater": 5059,
      "cohol": 5060,
      "ĠBig": 5061,
      "Ġnarr": 5062,
      "Ġattempted": 5063,
      "Ġaudience": 5064,
      "AY": 5065,
      "Ġtyp": 5066,
      "Ġstudent": 5067,
      "Ġcheap": 5068,
      "ĠRobert": 5069,
      "Ġpaint": 5070,
      "Ġwhim": 5071,
      "Ġadvanced": 5072,
      "Ġunless": 5073,
      "Ġcolors": 5074,
      "Ġapproaching": 5075,
      "Ġfrowned": 5076,
      "unted": 5077,
      "of": 5078,
      "Ġgreeted": 5079,
      "Ġsystems": 5080,
      "ĠAlso": 5081,
      "Ġbackground": 5082,
      "Ġanticip": 5083,
      "ĠSpe": 5084,
      "Ġsilly": 5085,
      "Ġtwist": 5086,
      "ĠNOT": 5087,
      "Ġcursed": 5088,
      "idering": 5089,
      "Ġprefer": 5090,
      "Ġloudly": 5091,
      "Ġhonor": 5092,
      "Ġstrang": 5093,
      "gun": 5094,
      "Ġprice": 5095,
      "Ġswir": 5096,
      "Ġblew": 5097,
      "Ġconstantly": 5098,
      "Ġdial": 5099,
      "Ġmas": 5100,
      "Ġfifty": 5101,
      "Ġcreep": 5102,
      "erves": 5103,
      "Ġyouth": 5104,
      "Ġseries": 5105,
      "Ġcovering": 5106,
      "Ġcastle": 5107,
      "Ġpil": 5108,
      "********": 5109,
      "Ġhttps": 5110,
      "Ġsadness": 5111,
      "Ġattract": 5112,
      "30": 5113,
      "Ġknee": 5114,
      "Ġrecognized": 5115,
      "ĠTe": 5116,
      "Ġinfl": 5117,
      "Ġbiggest": 5118,
      "Ġcred": 5119,
      "ulated": 5120,
      "Ġcuriosity": 5121,
      "Ġlength": 5122,
      "ĠLast": 5123,
      "Ġess": 5124,
      "ĠStar": 5125,
      "Ġautom": 5126,
      "Ġswallowed": 5127,
      "Ġnormally": 5128,
      "Ġkissed": 5129,
      "ums": 5130,
      "ĠBru": 5131,
      "Ġhelping": 5132,
      "Ġadult": 5133,
      "Ġcu": 5134,
      "ixt": 5135,
      "inger": 5136,
      "onscious": 5137,
      "Ġleaning": 5138,
      "ĠFe": 5139,
      "Ġcitiz": 5140,
      "acks": 5141,
      "Ġsurprising": 5142,
      "Ġwanting": 5143,
      "ID": 5144,
      "Ġmaint": 5145,
      "Ġsymb": 5146,
      "ĠDar": 5147,
      "Ġopens": 5148,
      "gen": 5149,
      "Ġembarrass": 5150,
      "Ġfed": 5151,
      "Ġfarm": 5152,
      "ka": 5153,
      "Ġharsh": 5154,
      "ĠAM": 5155,
      "Ġtower": 5156,
      "Ġprincess": 5157,
      "Ġtip": 5158,
      "ĠWhite": 5159,
      "bow": 5160,
      "Ġwhir": 5161,
      "Ġfake": 5162,
      "ivered": 5163,
      "Ġpainting": 5164,
      "Ġrelease": 5165,
      "oms": 5166,
      "ĠWo": 5167,
      "Ġruns": 5168,
      "Ġmelt": 5169,
      "Ġinvestig": 5170,
      "Ġcountless": 5171,
      "Ġbullets": 5172,
      "Ġmeth": 5173,
      "Ġspine": 5174,
      "Ġpaying": 5175,
      "Ġcock": 5176,
      "Ġweather": 5177,
      "Ġbased": 5178,
      "Ġsole": 5179,
      "ĠBes": 5180,
      "Ġlord": 5181,
      "Ġdawn": 5182,
      "ĠAnt": 5183,
      "ĠDis": 5184,
      "uts": 5185,
      "Ġstruggle": 5186,
      "ĠSH": 5187,
      "ĠMax": 5188,
      "Ġwhenever": 5189,
      "Ġlimbs": 5190,
      "Ġmonitor": 5191,
      "Ġpor": 5192,
      "Ġinvent": 5193,
      "Ġasshole": 5194,
      "Ġkiller": 5195,
      "Ġlowered": 5196,
      "Ġcondition": 5197,
      "ĠAct": 5198,
      "ament": 5199,
      "xy": 5200,
      "Ġexplosion": 5201,
      "actic": 5202,
      "Ġchildhood": 5203,
      "Ġkinda": 5204,
      "Ġvisible": 5205,
      "Ġmanner": 5206,
      "Ġmarket": 5207,
      "Ġchurch": 5208,
      "Ġroutine": 5209,
      "ĠHumans": 5210,
      "oes": 5211,
      "Ġblanket": 5212,
      "Ġwan": 5213,
      "nes": 5214,
      "Ġcurrently": 5215,
      "Ġ21": 5216,
      "Ġmember": 5217,
      "ĠRemember": 5218,
      "Ġperiod": 5219,
      "Ġdrawing": 5220,
      "orious": 5221,
      "Ġgap": 5222,
      "ashion": 5223,
      "Ġdescribe": 5224,
      "esome": 5225,
      "unched": 5226,
      "cra": 5227,
      "Ġfier": 5228,
      "Ġwizard": 5229,
      "ĠShould": 5230,
      "izza": 5231,
      "ilies": 5232,
      "Ġridiculous": 5233,
      "Ġleap": 5234,
      "Ġwed": 5235,
      "Ġdare": 5236,
      "Ġcrimin": 5237,
      "Ġoccup": 5238,
      "fire": 5239,
      "ov": 5240,
      "Ġleaders": 5241,
      "Ġdogs": 5242,
      "Ġhers": 5243,
      "Ġwrink": 5244,
      "Ġconfident": 5245,
      "ILL": 5246,
      "Ġissue": 5247,
      "IC": 5248,
      "Ġinterview": 5249,
      "Ġshows": 5250,
      "Ġrevealing": 5251,
      "Ġhonestly": 5252,
      "Ġsunlight": 5253,
      "Ġscree": 5254,
      "Ġmountains": 5255,
      "aze": 5256,
      "rant": 5257,
      "ĠQue": 5258,
      "ĠSaid": 5259,
      "Ġchanges": 5260,
      "xic": 5261,
      "Ġlifet": 5262,
      "Ġlibr": 5263,
      "Ġescaped": 5264,
      "Ġplenty": 5265,
      "Ġrever": 5266,
      "ĠFour": 5267,
      "Ġwaking": 5268,
      "urs": 5269,
      "Ġalcohol": 5270,
      "Ġswift": 5271,
      "rs": 5272,
      "Ġsuggest": 5273,
      "Ġmedical": 5274,
      "ĠCont": 5275,
      "ĠUnfortunately": 5276,
      "ette": 5277,
      "athy": 5278,
      "Ġbuddy": 5279,
      "ender": 5280,
      "ability": 5281,
      "ĠLuck": 5282,
      "Ġcheer": 5283,
      "Ġnine": 5284,
      "Ġrelationship": 5285,
      "ĠThrough": 5286,
      "Ġsaving": 5287,
      "Ġintense": 5288,
      "hest": 5289,
      "Ġtotally": 5290,
      "urally": 5291,
      "AD": 5292,
      "ĠTed": 5293,
      "Ġfigures": 5294,
      "Ġheight": 5295,
      "Ġattached": 5296,
      "Ġult": 5297,
      "ĠCo": 5298,
      "ĠEric": 5299,
      "Ġclaw": 5300,
      "Ġcontent": 5301,
      "nat": 5302,
      "Ġgrasp": 5303,
      "Ġchanging": 5304,
      "Ã©": 5305,
      "Ġequip": 5306,
      "Ġcomment": 5307,
      "Ġ14": 5308,
      "Ġbreathed": 5309,
      "Ġsacrif": 5310,
      "Ġdisbel": 5311,
      "Ġcreation": 5312,
      "Ġawful": 5313,
      "Ġreveal": 5314,
      "Ġbullshit": 5315,
      "Ġinevit": 5316,
      "Ġsymbol": 5317,
      "Ġcro": 5318,
      "essel": 5319,
      "Ġprogress": 5320,
      "Ġmovies": 5321,
      "pth": 5322,
      "Ġresting": 5323,
      "nal": 5324,
      "Ġlets": 5325,
      "Ġpleasure": 5326,
      "Ġknocking": 5327,
      "Ġspat": 5328,
      "Ġfunction": 5329,
      "Ġflowers": 5330,
      "Ġstopping": 5331,
      "Ġax": 5332,
      "Ġsuicide": 5333,
      "urg": 5334,
      "Ġbalance": 5335,
      "Ġemergency": 5336,
      "cell": 5337,
      "Ġrealised": 5338,
      "Ġshrie": 5339,
      "Ġdisease": 5340,
      "sequ": 5341,
      "alled": 5342,
      "Ġtrained": 5343,
      "Ġspect": 5344,
      "kered": 5345,
      "Ġduty": 5346,
      "Ġmap": 5347,
      "ĠPet": 5348,
      "Ġcoo": 5349,
      "fall": 5350,
      "Ġdaily": 5351,
      "Ġhey": 5352,
      "Ġdrugs": 5353,
      "Ġbread": 5354,
      "down": 5355,
      "Ġsettle": 5356,
      "ai": 5357,
      "Ġtapped": 5358,
      "Ġdepth": 5359,
      "ĠSanta": 5360,
      "ĠON": 5361,
      "ulate": 5362,
      "Ġexperienced": 5363,
      "ĠJacob": 5364,
      "Ġintelligence": 5365,
      "Ġvanished": 5366,
      "Ġsensation": 5367,
      "ams": 5368,
      "Ġassume": 5369,
      "Ġfilling": 5370,
      "GH": 5371,
      "ĠRE": 5372,
      "Ġbleeding": 5373,
      "No": 5374,
      "Ġrate": 5375,
      "Ġash": 5376,
      "Ġdiscuss": 5377,
      "Ġ25": 5378,
      "ĠPo": 5379,
      "Ġrestaur": 5380,
      "rying": 5381,
      "ĠEur": 5382,
      "Ġextremely": 5383,
      "ĠChris": 5384,
      "Ġcries": 5385,
      "ĠRy": 5386,
      "Ġspoken": 5387,
      "uments": 5388,
      "udge": 5389,
      "Ġmuscles": 5390,
      "Ġfifteen": 5391,
      "Ġgrandfather": 5392,
      "ĠStr": 5393,
      "Ġfog": 5394,
      "Ġgravity": 5395,
      "ĠBruce": 5396,
      "Ġmicro": 5397,
      "atively": 5398,
      "yer": 5399,
      "Ġcute": 5400,
      "Ġclen": 5401,
      "Ġgrace": 5402,
      "Ġproduct": 5403,
      "ĠApparently": 5404,
      "Ġeternal": 5405,
      "Ġshooting": 5406,
      "irmed": 5407,
      "Ġequipment": 5408,
      "ĠInt": 5409,
      "Ġrequest": 5410,
      "ifts": 5411,
      "Ġrevealed": 5412,
      "war": 5413,
      "Ġholl": 5414,
      "Ġreaction": 5415,
      "Ġinfect": 5416,
      "Ġroar": 5417,
      "Ġscram": 5418,
      "Ġmilk": 5419,
      "Ġexploded": 5420,
      "Ġplant": 5421,
      "Ġstir": 5422,
      "Ġunb": 5423,
      "Ġhabit": 5424,
      "oooo": 5425,
      "Ġanyways": 5426,
      "Ġelder": 5427,
      "Ġconsidering": 5428,
      "iday": 5429,
      "Ġresults": 5430,
      "Ġgarden": 5431,
      "Ġgates": 5432,
      "ĠBeing": 5433,
      "Ġinstruct": 5434,
      "Ġbitter": 5435,
      "Ġswim": 5436,
      "Ġcontinues": 5437,
      "Ġvessel": 5438,
      "***": 5439,
      "Ġupset": 5440,
      "oul": 5441,
      "Ġfeatures": 5442,
      "Ġlamp": 5443,
      "Ġtrash": 5444,
      "Ġoption": 5445,
      "Ġcream": 5446,
      "Ġprivate": 5447,
      "Ġug": 5448,
      "uming": 5449,
      "Ġfamilies": 5450,
      "Ġclient": 5451,
      "Ġpuzz": 5452,
      "Ġlightning": 5453,
      "Ġbriefly": 5454,
      "Ġdeaf": 5455,
      "Ġ24": 5456,
      "Ġri": 5457,
      "empl": 5458,
      "agn": 5459,
      "Ġadventure": 5460,
      "Ġtemper": 5461,
      "pack": 5462,
      "Ġbetr": 5463,
      "aptop": 5464,
      "Ġenemies": 5465,
      "iven": 5466,
      "Ġboo": 5467,
      "Ġeverybody": 5468,
      "Ġpractically": 5469,
      "ograph": 5470,
      "Ġmagical": 5471,
      "ĠBu": 5472,
      "Ġfab": 5473,
      "gon": 5474,
      "Ġcalmly": 5475,
      "Ġsire": 5476,
      "Ġregular": 5477,
      "Ġamongst": 5478,
      "put": 5479,
      "Ġscientist": 5480,
      "Ġconnected": 5481,
      "stal": 5482,
      "rier": 5483,
      "VER": 5484,
      "Ġchain": 5485,
      "Ġbowl": 5486,
      "Ġwealth": 5487,
      "Ġcompet": 5488,
      "ĠEmp": 5489,
      "mother": 5490,
      "ĠMY": 5491,
      "Ġbrave": 5492,
      "ront": 5493,
      "Ġmuff": 5494,
      "ĠWHAT": 5495,
      "Ġtax": 5496,
      "Ġnearest": 5497,
      "Ġ**''": 5498,
      "logical": 5499,
      "Ġ200": 5500,
      "ĠAlmost": 5501,
      "Ġlaptop": 5502,
      "Ġtwelve": 5503,
      "Ġteach": 5504,
      "ording": 5505,
      "ĠWelcome": 5506,
      "CT": 5507,
      "Ġwhispers": 5508,
      "olve": 5509,
      "Ġpeaceful": 5510,
      "Ġjobs": 5511,
      "Ġinvolved": 5512,
      "Ġcombat": 5513,
      "ĠThings": 5514,
      "Ġshoved": 5515,
      "Ġpsych": 5516,
      "Ġstruggling": 5517,
      "Ġ13": 5518,
      "inating": 5519,
      "orter": 5520,
      "enger": 5521,
      "Ġowner": 5522,
      "Ġaccompl": 5523,
      "raw": 5524,
      "Ġfade": 5525,
      "Ġvague": 5526,
      "pts": 5527,
      "Ġshudd": 5528,
      "Ġwhom": 5529,
      "Ġconcent": 5530,
      "Ġuncomfortable": 5531,
      "Ġscen": 5532,
      "Ġsmelled": 5533,
      "Ġgoddamn": 5534,
      "ĠEver": 5535,
      "Ġtotal": 5536,
      "Ġtrad": 5537,
      "asc": 5538,
      "ĠJere": 5539,
      "ĠHoly": 5540,
      "Ġsomebody": 5541,
      "Ġcarpet": 5542,
      "jected": 5543,
      "ada": 5544,
      "uttered": 5545,
      "ERE": 5546,
      "Ġtill": 5547,
      "ĠWilliam": 5548,
      "Ġfashion": 5549,
      "Ġnar": 5550,
      "Ġwishes": 5551,
      "Ġdisbelief": 5552,
      "!'": 5553,
      "lings": 5554,
      "anda": 5555,
      "ĠJohnny": 5556,
      "ĠCarl": 5557,
      "riage": 5558,
      "Ġforms": 5559,
      "lling": 5560,
      "ĠBra": 5561,
      "Ġresources": 5562,
      "hold": 5563,
      "Ġbio": 5564,
      "ĠBilly": 5565,
      "hant": 5566,
      "Ġ16": 5567,
      "pre": 5568,
      "Ġrope": 5569,
      "Ġunus": 5570,
      "Ġextended": 5571,
      "Ġneat": 5572,
      "ushes": 5573,
      "Ġcutting": 5574,
      "Ġrequired": 5575,
      "ye": 5576,
      "uu": 5577,
      "Ġdrops": 5578,
      "iped": 5579,
      "CH": 5580,
      "Ġgestured": 5581,
      "Ġholes": 5582,
      "ĠLove": 5583,
      "ĠLittle": 5584,
      "ĠDevil": 5585,
      "Ġrow": 5586,
      "Ġmob": 5587,
      "Ġswing": 5588,
      "Ġpainful": 5589,
      "ĠExcept": 5590,
      "ĠStep": 5591,
      "Ġclosest": 5592,
      "Ġtank": 5593,
      "Ġpad": 5594,
      "Ġcorrid": 5595,
      "Ġchem": 5596,
      "ĠHigh": 5597,
      "ggy": 5598,
      "Ġtour": 5599,
      "Ġmumbled": 5600,
      "isc": 5601,
      "Ġplanning": 5602,
      "Ġconvinced": 5603,
      "ĠPart": 5604,
      "Ġvent": 5605,
      "Ġmoves": 5606,
      "Ġbrilliant": 5607,
      "Ġrapidly": 5608,
      "ĠCur": 5609,
      "Ġarrive": 5610,
      "ĠUnder": 5611,
      "Ġgrabbing": 5612,
      "ias": 5613,
      "Ġcreating": 5614,
      "Ġcoin": 5615,
      "Ġclothing": 5616,
      "Ġdetermined": 5617,
      "ox": 5618,
      "ĠPut": 5619,
      "Ġprofession": 5620,
      "agon": 5621,
      "gu": 5622,
      "Ġinch": 5623,
      "Ġinches": 5624,
      "Ġgripped": 5625,
      "Ġmethod": 5626,
      "Ġcris": 5627,
      "Ġforeign": 5628,
      "Ġrecent": 5629,
      "Ġdropping": 5630,
      "!?": 5631,
      "Ġtur": 5632,
      "Ġflowing": 5633,
      "Ġconqu": 5634,
      "Ġhouses": 5635,
      "ĠProf": 5636,
      "ĠQueen": 5637,
      "Ġpunch": 5638,
      "Ġlege": 5639,
      "ĠGive": 5640,
      "Ġcrashed": 5641,
      "vis": 5642,
      "IM": 5643,
      "Ġpainted": 5644,
      "oog": 5645,
      "ĠTHAT": 5646,
      "Ġpounding": 5647,
      "Ġstated": 5648,
      "rr": 5649,
      "Ġinvis": 5650,
      "Ġexcuse": 5651,
      "iated": 5652,
      "Ġreaches": 5653,
      "umping": 5654,
      "^^": 5655,
      "ĠDaddy": 5656,
      "Ġ17": 5657,
      "Ġdiscover": 5658,
      "Ġsenses": 5659,
      "ĠProbably": 5660,
      "Ġchuckle": 5661,
      "Ġmultiple": 5662,
      "Ġhug": 5663,
      "ĠSmith": 5664,
      "Ġappearance": 5665,
      "Ġwre": 5666,
      "pa": 5667,
      "Ġcore": 5668,
      "Ġpizza": 5669,
      "Ġterms": 5670,
      "Ġsurre": 5671,
      "Ġringing": 5672,
      "bbled": 5673,
      "They": 5674,
      "Ġreasons": 5675,
      "antically": 5676,
      "Ġemerged": 5677,
      "ĠBatman": 5678,
      "ux": 5679,
      "Ġrhy": 5680,
      "Ġlikes": 5681,
      "uman": 5682,
      "Ġtil": 5683,
      "Ġfrag": 5684,
      "Ġpitch": 5685,
      "Ġroared": 5686,
      "Ġbecomes": 5687,
      "Ġdeveloped": 5688,
      "Ġrested": 5689,
      "LD": 5690,
      "Ġchill": 5691,
      "ĠBesides": 5692,
      "Ġmail": 5693,
      "Ġmankind": 5694,
      "Ġprior": 5695,
      "Ġappreciate": 5696,
      "Ġpuff": 5697,
      "ĠSy": 5698,
      "Ġloving": 5699,
      "Ġclimb": 5700,
      "Ġphoto": 5701,
      "Ġprovide": 5702,
      "Ġcivilization": 5703,
      "iron": 5704,
      "Ġlearning": 5705,
      "Ġdun": 5706,
      "ĠDaniel": 5707,
      "overy": 5708,
      "Ġlovely": 5709,
      "ĠKevin": 5710,
      "oman": 5711,
      "Ġtraffic": 5712,
      "Ġheroes": 5713,
      "ops": 5714,
      "Ġfleet": 5715,
      "ĠCharles": 5716,
      "Ġpockets": 5717,
      "ĠCle": 5718,
      "ĠMal": 5719,
      "Ġflow": 5720,
      "Ġdrank": 5721,
      "Ġcere": 5722,
      "Ġbutter": 5723,
      "Ġdrifted": 5724,
      "Ġserve": 5725,
      "Ġmood": 5726,
      "Ġserved": 5727,
      "ĠExc": 5728,
      "friend": 5729,
      "Ġrushing": 5730,
      "ĠMs": 5731,
      "Ġcourage": 5732,
      "Ġavo": 5733,
      "ĠFive": 5734,
      "ĠBrian": 5735,
      "Ġpopular": 5736,
      "Ġofficers": 5737,
      "fit": 5738,
      "spe": 5739,
      "Ġcommunity": 5740,
      "rick": 5741,
      "isters": 5742,
      "Ġappl": 5743,
      "Ġconvince": 5744,
      "ĠPhil": 5745,
      "Ġprepare": 5746,
      "tending": 5747,
      "coming": 5748,
      "Ġsurviv": 5749,
      "field": 5750,
      "Ġwashed": 5751,
      "Ġlun": 5752,
      "can": 5753,
      "Ġmate": 5754,
      "Ġreass": 5755,
      "den": 5756,
      "Ġhast": 5757,
      "Ġmatters": 5758,
      "ION": 5759,
      "Ġtrade": 5760,
      "ĠRichard": 5761,
      "Ġbrushed": 5762,
      "Ġhits": 5763,
      "Ġsandw": 5764,
      "Ġfourth": 5765,
      "Ġruined": 5766,
      "Ġdancing": 5767,
      "Ġfrequ": 5768,
      "Ġwhist": 5769,
      "Ġagent": 5770,
      "uel": 5771,
      "ware": 5772,
      "Ġsevent": 5773,
      "ĠAbout": 5774,
      "Ġsolar": 5775,
      "ĠCity": 5776,
      "Ġaccent": 5777,
      "acles": 5778,
      "aries": 5779,
      "ĠJane": 5780,
      "Ġstares": 5781,
      "Ġdefeat": 5782,
      "Ġtrembling": 5783,
      "ĠEdit": 5784,
      "Ġlake": 5785,
      "Ġhurried": 5786,
      "Ġstained": 5787,
      "ĠSus": 5788,
      "Ġbags": 5789,
      "Ġconcept": 5790,
      "Ġsupplies": 5791,
      "imately": 5792,
      "Ġcharged": 5793,
      "Ġviolent": 5794,
      "Ġcards": 5795,
      "wo": 5796,
      "Ġawa": 5797,
      "II": 5798,
      "Ġdemanded": 5799,
      "arn": 5800,
      "Ġreturning": 5801,
      "Ġtemple": 5802,
      "Ġease": 5803,
      "Ġweeke": 5804,
      "Ġugly": 5805,
      "ĠGods": 5806,
      "rate": 5807,
      "Ġsteal": 5808,
      "Ġbesides": 5809,
      "Ġyard": 5810,
      "Ġvictory": 5811,
      "Ġtough": 5812,
      "Ġsuits": 5813,
      "Ġsnap": 5814,
      "Ġ<": 5815,
      "Ġgoodbye": 5816,
      "ĠGab": 5817,
      "ĠUs": 5818,
      "Ġchecking": 5819,
      "Ġcops": 5820,
      "Ġpriest": 5821,
      "inal": 5822,
      "ĠWay": 5823,
      "Ġretreat": 5824,
      "Ġsorts": 5825,
      "Ġrestaurant": 5826,
      "Ġsquad": 5827,
      "Ġparking": 5828,
      "Ġremove": 5829,
      "Ġcrept": 5830,
      "het": 5831,
      "Ġincident": 5832,
      "Ġspecific": 5833,
      "acon": 5834,
      "ĠYOUR": 5835,
      "Ġsurroundings": 5836,
      "Ġfields": 5837,
      "Ġhint": 5838,
      "Ġpills": 5839,
      "antage": 5840,
      "Ġslide": 5841,
      "Ġbord": 5842,
      "10": 5843,
      "Ġreports": 5844,
      "Ġfruit": 5845,
      "Ġmodern": 5846,
      "Ġpeered": 5847,
      "ĠCall": 5848,
      "Ġsurve": 5849,
      "Ġpow": 5850,
      "Ġtoile": 5851,
      "wood": 5852,
      "Ġgru": 5853,
      "Ġgang": 5854,
      "Ġdrinks": 5855,
      "Ġversion": 5856,
      "Ġpolite": 5857,
      "ora": 5858,
      "Ġcalcul": 5859,
      "nie": 5860,
      "UR": 5861,
      "Ġfading": 5862,
      "There": 5863,
      "Ġsite": 5864,
      "ĠRon": 5865,
      "vest": 5866,
      "Ġ40": 5867,
      "Ġclearing": 5868,
      "Ġembrace": 5869,
      "Ġcrushed": 5870,
      "Ġdepe": 5871,
      "Ġcontempl": 5872,
      "Ġtransport": 5873,
      "Ġhttp": 5874,
      "ĠMel": 5875,
      "ĠMarcus": 5876,
      "Ġlaws": 5877,
      "Ġchallenge": 5878,
      "Ġhid": 5879,
      "Ġsniff": 5880,
      "Ġsport": 5881,
      "Ġdesigned": 5882,
      "Ġcompre": 5883,
      "Ġexplan": 5884,
      "Ġincredibly": 5885,
      "aves": 5886,
      "Ġmud": 5887,
      "Ġcircum": 5888,
      "Ġdeck": 5889,
      "Ġfists": 5890,
      "HA": 5891,
      "Ġhopes": 5892,
      "Ġfailure": 5893,
      "ĠZe": 5894,
      "Ġtries": 5895,
      "Ġseek": 5896,
      "dding": 5897,
      "Ġfairly": 5898,
      "Ġpassion": 5899,
      "Ġanaly": 5900,
      "Ġstress": 5901,
      "Ġattend": 5902,
      "Ġclaimed": 5903,
      "uated": 5904,
      "ĠSun": 5905,
      "Ġcrap": 5906,
      "lass": 5907,
      "Ġspinning": 5908,
      "Ġawe": 5909,
      "??": 5910,
      "Ġsched": 5911,
      "rig": 5912,
      "Ġintent": 5913,
      "Ġscattered": 5914,
      "Ġclaws": 5915,
      "itual": 5916,
      "Ġcurled": 5917,
      "ĠAlways": 5918,
      "Ġunique": 5919,
      "Ġimages": 5920,
      "Ġstandard": 5921,
      "Ġarmed": 5922,
      "Ġassass": 5923,
      "Ġholds": 5924,
      "ĠTears": 5925,
      "Ġnightmare": 5926,
      "Ġrepresent": 5927,
      "Ġguide": 5928,
      "Ġorb": 5929,
      "Ġbatt": 5930,
      "Ġsheet": 5931,
      "yn": 5932,
      "ĠShut": 5933,
      "ĠSand": 5934,
      "Ġbrand": 5935,
      "ndered": 5936,
      "anks": 5937,
      "Ġhammer": 5938,
      "Ġstartled": 5939,
      "oops": 5940,
      "ĠTHIS": 5941,
      "bble": 5942,
      "Ġ_": 5943,
      "Ġdefend": 5944,
      "Ġintelligent": 5945,
      "ĠSur": 5946,
      "Ġunlo": 5947,
      "Ġstock": 5948,
      "Ġesc": 5949,
      "cape": 5950,
      "Ġgazed": 5951,
      "Ġbelly": 5952,
      "Ġmedia": 5953,
      "Ġlifetime": 5954,
      "brow": 5955,
      "vering": 5956,
      "Ġmort": 5957,
      "atched": 5958,
      "Ġfloated": 5959,
      "Ġgain": 5960,
      "Ġhalt": 5961,
      "Ġprecious": 5962,
      "Ġchew": 5963,
      "sec": 5964,
      "Ġlas": 5965,
      ".....": 5966,
      "ĠEurope": 5967,
      "vere": 5968,
      "ĠWow": 5969,
      "Ġmighty": 5970,
      "Ġedges": 5971,
      "ĠUm": 5972,
      "Ġfrantically": 5973,
      "Ġestab": 5974,
      "Ġbrings": 5975,
      "ĠWhe": 5976,
      "ĠNorm": 5977,
      "Ġsigned": 5978,
      "Ġvehicle": 5979,
      "Ġcolon": 5980,
      "Ġsearched": 5981,
      "Ġskills": 5982,
      "ĠDem": 5983,
      "Ġfriendly": 5984,
      "Ġunivers": 5985,
      "ickered": 5986,
      "Ġremote": 5987,
      "Ġtracks": 5988,
      "Ġpouring": 5989,
      "Ġbrush": 5990,
      "ho": 5991,
      "Ġbits": 5992,
      "Ġrestr": 5993,
      "Ġsan": 5994,
      "ĠPar": 5995,
      "Ġcloth": 5996,
      "ĠLong": 5997,
      "Ġcorrupt": 5998,
      "Ġspotted": 5999,
      "mar": 6000,
      "Ġshots": 6001,
      "Ġspare": 6002,
      "Ġslumped": 6003,
      "ĠAc": 6004,
      "Ġju": 6005,
      "peror": 6006,
      "Ġmistakes": 6007,
      "Ġdripping": 6008,
      "Ġgoal": 6009,
      "Ġproperly": 6010,
      "Ġwaist": 6011,
      "Ġportal": 6012,
      "Ġsobbing": 6013,
      "Ġfabric": 6014,
      "world": 6015,
      "Ġeyed": 6016,
      "shot": 6017,
      "ification": 6018,
      "Ġrail": 6019,
      "hern": 6020,
      "Ġupstairs": 6021,
      "Ġspar": 6022,
      "Ġfirmly": 6023,
      "Ġrepeat": 6024,
      "Ġsuccessful": 6025,
      "Ġgroaned": 6026,
      "Ġrelie": 6027,
      "ĠTra": 6028,
      "Ġswept": 6029,
      "Ġbasic": 6030,
      "Ġeyebrow": 6031,
      "Ġsmirk": 6032,
      "ĠVal": 6033,
      "Ġscroll": 6034,
      "Ġtools": 6035,
      "icles": 6036,
      "Ġrevol": 6037,
      "Ġstructure": 6038,
      "SE": 6039,
      "mates": 6040,
      "Ġwipe": 6041,
      "Ġcareer": 6042,
      "Ġinvisible": 6043,
      "box": 6044,
      "Ġsection": 6045,
      "ĠSch": 6046,
      "Ġholy": 6047,
      "Ġsuffer": 6048,
      "Ġshown": 6049,
      "Ġjustice": 6050,
      "Ġ23": 6051,
      "ĠFire": 6052,
      "aving": 6053,
      "Ġupper": 6054,
      "Ġunit": 6055,
      "ivering": 6056,
      "anch": 6057,
      "Ġwash": 6058,
      "azed": 6059,
      "Ġexplos": 6060,
      "Ġbarrel": 6061,
      "Ġtunnel": 6062,
      "Ġticket": 6063,
      "ĠWE": 6064,
      "ĠHuh": 6065,
      "ĠGal": 6066,
      "attoo": 6067,
      "Ġlibrary": 6068,
      "Ġnav": 6069,
      "Ġenjo": 6070,
      "craft": 6071,
      "ĠAndrew": 6072,
      "Ġincluding": 6073,
      "rol": 6074,
      "ulations": 6075,
      "otic": 6076,
      "Ġattempts": 6077,
      "ĠSteven": 6078,
      "ĠSurely": 6079,
      "Ġstair": 6080,
      "Ġonline": 6081,
      "ĠCent": 6082,
      "Ġlined": 6083,
      "Ġflicked": 6084,
      "Ġshelter": 6085,
      "Ġatop": 6086,
      "Ġvirus": 6087,
      "Ġspring": 6088,
      "Ġritual": 6089,
      "Ġscent": 6090,
      "CE": 6091,
      "Ġdug": 6092,
      "Ġlatest": 6093,
      "Ġcrou": 6094,
      "ĠHmm": 6095,
      "Oh": 6096,
      "ĠSilence": 6097,
      "Ġpractice": 6098,
      "Ġpleasant": 6099,
      "ĠLar": 6100,
      "ĠJosh": 6101,
      "ĠInside": 6102,
      "Ġerupted": 6103,
      "hal": 6104,
      "vert": 6105,
      "ĠTre": 6106,
      "allic": 6107,
      "Ġinqu": 6108,
      "alley": 6109,
      "ĠEv": 6110,
      "ĠHold": 6111,
      "bar": 6112,
      "mes": 6113,
      "She": 6114,
      "Ġsheets": 6115,
      "Ġnewsp": 6116,
      "Ġguilt": 6117,
      "xygen": 6118,
      "ĠRyan": 6119,
      "aph": 6120,
      "Ġexpensive": 6121,
      "Ġshade": 6122,
      "ĠRes": 6123,
      "los": 6124,
      "Ġclenched": 6125,
      "icient": 6126,
      "ĠHim": 6127,
      "Ġwaving": 6128,
      "Ġwidened": 6129,
      "lly": 6130,
      "Ġsurvival": 6131,
      "Ġofficial": 6132,
      "Ġwarrior": 6133,
      "Ġshitty": 6134,
      "Ġcontr": 6135,
      "Ġinfinite": 6136,
      "Ġfrustration": 6137,
      "Ġtoilet": 6138,
      "Ġvom": 6139,
      "Ġstole": 6140,
      "Ġprovided": 6141,
      "Ġcorners": 6142,
      "pect": 6143,
      "Ġcure": 6144,
      "Ġwallet": 6145,
      "Ġrange": 6146,
      "Ġenviron": 6147,
      "Ġmentioned": 6148,
      "In": 6149,
      "Ġbunk": 6150,
      "ĠHon": 6151,
      "ĠKat": 6152,
      "Ġrooms": 6153,
      "Ġarch": 6154,
      "Ġlightly": 6155,
      "Ġdreaming": 6156,
      "asket": 6157,
      "ĠJeremy": 6158,
      "Ġdefense": 6159,
      "Ġuseful": 6160,
      "Ġcameras": 6161,
      "Ġrab": 6162,
      "Ġglory": 6163,
      "Ġviolence": 6164,
      "Ġpurs": 6165,
      "Ġtooth": 6166,
      "Ġfamous": 6167,
      "eline": 6168,
      "Ġconnection": 6169,
      "Ġhunt": 6170,
      "ĠJohnson": 6171,
      "Ġvillain": 6172,
      "Ġfolded": 6173,
      "Ġtorture": 6174,
      "apan": 6175,
      "Ġbackpack": 6176,
      "ĠGary": 6177,
      "Ġproof": 6178,
      "Ġcharacters": 6179,
      "ĠMake": 6180,
      "Ġphr": 6181,
      "Ġlaughs": 6182,
      "ĠProfessor": 6183,
      "Ġpacked": 6184,
      "uine": 6185,
      "ĠBrit": 6186,
      "Ġagony": 6187,
      "Ġarrest": 6188,
      "stand": 6189,
      "elly": 6190,
      "Ġscanned": 6191,
      "ĠMad": 6192,
      "Ġveins": 6193,
      "Ġflag": 6194,
      "Ġattempting": 6195,
      "Ġannounced": 6196,
      "Ġwars": 6197,
      "Ġstudied": 6198,
      "Ġforming": 6199,
      "Ġfart": 6200,
      "Ġages": 6201,
      "Ġmarks": 6202,
      "ki": 6203,
      "ĠWithin": 6204,
      "Ġchairs": 6205,
      "Ġrobes": 6206,
      "Ġpant": 6207,
      "Ġeaten": 6208,
      "Ġbru": 6209,
      "Ġselect": 6210,
      "Ġconsequ": 6211,
      "conom": 6212,
      "Ġcompanion": 6213,
      "Ġcolour": 6214,
      "Ġsacrifice": 6215,
      "Ġhunting": 6216,
      "enced": 6217,
      "isa": 6218,
      "Ġ________________________________": 6219,
      "unting": 6220,
      "Ġdownstairs": 6221,
      "Ġmysterious": 6222,
      "Ġdeaths": 6223,
      "OP": 6224,
      "Ġshortly": 6225,
      "Ġangels": 6226,
      "Ġling": 6227,
      "Ġdecade": 6228,
      "ĠLo": 6229,
      "Ġsignific": 6230,
      "hew": 6231,
      "ilty": 6232,
      "Ġnoises": 6233,
      "thur": 6234,
      "Ġcliff": 6235,
      "umer": 6236,
      "Ġincredible": 6237,
      "Ġannoyed": 6238,
      "ĠSn": 6239,
      "Ġhunger": 6240,
      "Ġcage": 6241,
      "Ġslowed": 6242,
      "Ġmetallic": 6243,
      "riel": 6244,
      "ĠAf": 6245,
      "Ġjeans": 6246,
      "Ġtattoo": 6247,
      "Ġeveryday": 6248,
      "Ġbreaths": 6249,
      "Ġacqu": 6250,
      "Ġcloak": 6251,
      "Ġnarrow": 6252,
      "Ġsoot": 6253,
      "Ġunex": 6254,
      "Ġflashing": 6255,
      "Ġhaven": 6256,
      "Ġterrifying": 6257,
      "cknow": 6258,
      "Ġpanicked": 6259,
      "spect": 6260,
      "Ġsinging": 6261,
      "Ġthrust": 6262,
      "Ġstunned": 6263,
      "rous": 6264,
      "Ġ-''": 6265,
      "Ġracing": 6266,
      "Ġgrade": 6267,
      "Ġboxes": 6268,
      "ĠPre": 6269,
      "Ġglared": 6270,
      "Ġnorth": 6271,
      "Ġwandered": 6272,
      "Ġmessages": 6273,
      "Ġloves": 6274,
      "Ġbars": 6275,
      "Ġconfidence": 6276,
      "Ġcleaning": 6277,
      "ĠTony": 6278,
      "Ġcopy": 6279,
      "Ġobsc": 6280,
      "Ġoccurred": 6281,
      "Ġneighborhood": 6282,
      "imson": 6283,
      "ĠOp": 6284,
      "Ġoil": 6285,
      "Ġentry": 6286,
      "bre": 6287,
      "ĠPol": 6288,
      "Ġaged": 6289,
      "ĠKeep": 6290,
      "Ġrealization": 6291,
      "Ġputs": 6292,
      "Ġruin": 6293,
      "Ġstatement": 6294,
      "cr": 6295,
      "Ġhealthy": 6296,
      "Ġsmashed": 6297,
      "Ġforgive": 6298,
      "Ġtearing": 6299,
      "Ġsidewalk": 6300,
      "retched": 6301,
      "Ġcircumst": 6302,
      "Ġdestination": 6303,
      "power": 6304,
      "Ġgenuine": 6305,
      "Ġconfl": 6306,
      "!?''": 6307,
      "Ġhomes": 6308,
      "Ġacting": 6309,
      "Ġraising": 6310,
      "Ġbom": 6311,
      "Ġallowing": 6312,
      "zens": 6313,
      "Ġscratched": 6314,
      "Ġagg": 6315,
      "ĠEve": 6316,
      "Ġsuspect": 6317,
      "ĠSecond": 6318,
      "Ġdanced": 6319,
      "Ġcountries": 6320,
      "Ġimagination": 6321,
      "Ġwounds": 6322,
      "asp": 6323,
      "Ġcommander": 6324,
      "Ġchicken": 6325,
      "Ġcontents": 6326,
      "ocolate": 6327,
      "Ġexplanation": 6328,
      "Ġachieve": 6329,
      "ĠOl": 6330,
      "AAAA": 6331,
      "Ġforty": 6332,
      "Ġwolf": 6333,
      "Ġreceive": 6334,
      "Ġcrawled": 6335,
      "urd": 6336,
      "ĠSol": 6337,
      "iate": 6338,
      "Ġminor": 6339,
      "Ġfreak": 6340,
      "Ġviolently": 6341,
      "Ġexample": 6342,
      "pses": 6343,
      "ĠKore": 6344,
      "Ġhearts": 6345,
      "lla": 6346,
      "Ġagreement": 6347,
      "Ġcitizens": 6348,
      "Ġgeneration": 6349,
      "Ġplants": 6350,
      "Ġintended": 6351,
      "Ġmug": 6352,
      "ĠNick": 6353,
      "Ġcaut": 6354,
      "Ġexplore": 6355,
      "KE": 6356,
      "Ġoptions": 6357,
      "Ġcompared": 6358,
      "Ġeffects": 6359,
      "venge": 6360,
      "Ġbrut": 6361,
      "Ġuncle": 6362,
      "Ġinflu": 6363,
      "Ġcrashing": 6364,
      "Ġadjusted": 6365,
      "Ġfeared": 6366,
      "Ġcats": 6367,
      "yr": 6368,
      "Ġresc": 6369,
      "Ġbothered": 6370,
      "ĠThink": 6371,
      "Ġspit": 6372,
      "ĠJapan": 6373,
      "Ġrealizing": 6374,
      "Ġentertain": 6375,
      "Ġcatching": 6376,
      "org": 6377,
      "ificial": 6378,
      "Ġcub": 6379,
      "Ġfinds": 6380,
      "Ġprofessor": 6381,
      "Ġinspect": 6382,
      "Ġfolks": 6383,
      "entially": 6384,
      "ĠTommy": 6385,
      "Ġbasically": 6386,
      "Ġabrupt": 6387,
      "hole": 6388,
      "Ġbreast": 6389,
      "brows": 6390,
      "Ġclutching": 6391,
      "Ġpretend": 6392,
      "Ġdang": 6393,
      "RR": 6394,
      "reg": 6395,
      "Ġblinding": 6396,
      "Ġavailable": 6397,
      "St": 6398,
      "ĠBehind": 6399,
      "ĠAnything": 6400,
      "inding": 6401,
      "Ġcommunication": 6402,
      "ĠARE": 6403,
      "Ġattacked": 6404,
      "ĠMen": 6405,
      "Ġafterlife": 6406,
      "Ġshuffled": 6407,
      "olen": 6408,
      "Ġdecor": 6409,
      "Ġexchange": 6410,
      "inter": 6411,
      "Ġstyle": 6412,
      "aline": 6413,
      "Ġsubs": 6414,
      "Ġannoying": 6415,
      "Ġacknow": 6416,
      "Ġbacked": 6417,
      "Ġbay": 6418,
      "ige": 6419,
      "Ġunsure": 6420,
      "Ġraced": 6421,
      "Ġdisgust": 6422,
      "Ġfridge": 6423,
      "Ġenth": 6424,
      "Ġpreparing": 6425,
      "Ġsucceed": 6426,
      "Ġmal": 6427,
      "Ġdick": 6428,
      "Ġredd": 6429,
      "that": 6430,
      "Ġcheese": 6431,
      "vation": 6432,
      "Ġmuffled": 6433,
      "Ġgul": 6434,
      "Ġwhoever": 6435,
      "ĠStan": 6436,
      "Ġhatred": 6437,
      "Ġmercy": 6438,
      "Ġsolution": 6439,
      "Ġpig": 6440,
      "Ġclip": 6441,
      "ĠMo": 6442,
      "Ġdefeated": 6443,
      "Ġhalfway": 6444,
      "Ġshiny": 6445,
      "ĠFOR": 6446,
      "ĠSuch": 6447,
      "Ġseats": 6448,
      "Ġordinary": 6449,
      "Ġpillow": 6450,
      "rily": 6451,
      "Ġbroadcast": 6452,
      "Ġthus": 6453,
      "Ġcycle": 6454,
      "Ġgear": 6455,
      "Ġnods": 6456,
      "Ġhappily": 6457,
      "place": 6458,
      "Ġsmoking": 6459,
      "Ġrealm": 6460,
      "otes": 6461,
      "ĠJose": 6462,
      "ucks": 6463,
      "ĠEmily": 6464,
      "Ġwitch": 6465,
      "Ġsway": 6466,
      "Ġnap": 6467,
      "Ġhurts": 6468,
      "ounded": 6469,
      "hou": 6470,
      "Ġfilth": 6471,
      "itation": 6472,
      "elling": 6473,
      "velope": 6474,
      "Ġwedding": 6475,
      "sis": 6476,
      "Ġtransform": 6477,
      "mbled": 6478,
      "Ġdismiss": 6479,
      "Ġplatform": 6480,
      "Ġrings": 6481,
      "Ġpressing": 6482,
      "Ġinitial": 6483,
      "Ġvalue": 6484,
      "ĠBel": 6485,
      "oogle": 6486,
      "uch": 6487,
      "Ġconstruct": 6488,
      "arl": 6489,
      "uce": 6490,
      "aneously": 6491,
      "Ġfurn": 6492,
      "Ġplot": 6493,
      "orse": 6494,
      "ounds": 6495,
      "aire": 6496,
      "Ġmanager": 6497,
      "Ġdespair": 6498,
      "ĠRussian": 6499,
      "Ġconfirmed": 6500,
      "ĠCommander": 6501,
      "ribly": 6502,
      "Ġlied": 6503,
      "Ġsen": 6504,
      "Ġhissed": 6505,
      "Ġshim": 6506,
      "As": 6507,
      "Ġenorm": 6508,
      "Ġfalse": 6509,
      "Ġded": 6510,
      "Ġhurry": 6511,
      "Ġsubst": 6512,
      "Ġeyebrows": 6513,
      "Ġunusual": 6514,
      "uous": 6515,
      "Ġstern": 6516,
      "ĠMartin": 6517,
      "Ġeconom": 6518,
      "Ġanybody": 6519,
      "oning": 6520,
      "Ġorbit": 6521,
      "ĠGreen": 6522,
      "Ġenvelope": 6523,
      "Ġzero": 6524,
      "Ġsouth": 6525,
      "Ġinner": 6526,
      "Ġclub": 6527,
      "Ġdaddy": 6528,
      "Ġsupply": 6529,
      "Ġconce": 6530,
      "Ġadvance": 6531,
      "Ġtitle": 6532,
      "Ġven": 6533,
      "Ġfuneral": 6534,
      "Ġupwards": 6535,
      "Ġsheep": 6536,
      "Ġhi": 6537,
      "Ġlifeless": 6538,
      "Ġoxygen": 6539,
      "Ġlur": 6540,
      "inese": 6541,
      "Ġbart": 6542,
      "Ġbald": 6543,
      "Ġrat": 6544,
      "Ġmuscle": 6545,
      "Ġconflict": 6546,
      "Ġweekend": 6547,
      "Ġfavour": 6548,
      "Ġsecrets": 6549,
      "natural": 6550,
      "Ġenvironment": 6551,
      "Ġfoolish": 6552,
      "ĠKyle": 6553,
      "Ġpiercing": 6554,
      "Ġhomeless": 6555,
      "uten": 6556,
      "Ġcollar": 6557,
      "Ġbeasts": 6558,
      "Ġresponsible": 6559,
      "fuck": 6560,
      "Ġfires": 6561,
      "ĠSon": 6562,
      "Ġcontained": 6563,
      "Ġdecent": 6564,
      "ĠLucy": 6565,
      "Ġspear": 6566,
      "Ġstretch": 6567,
      "Ġopin": 6568,
      "ĠArthur": 6569,
      "yes": 6570,
      "thm": 6571,
      "Ġcouncil": 6572,
      "Ġdusty": 6573,
      "outs": 6574,
      "Ġimpl": 6575,
      "Ġpunishment": 6576,
      "Ġproceeded": 6577,
      "Ġneighbors": 6578,
      "Ġjumping": 6579,
      "ĠExcuse": 6580,
      "Ġvamp": 6581,
      "ĠAlice": 6582,
      "Ġstaying": 6583,
      "Ġtucked": 6584,
      "aren": 6585,
      "isions": 6586,
      "ĠJones": 6587,
      "Ġstatic": 6588,
      "amped": 6589,
      "Ġbelief": 6590,
      "agers": 6591,
      "ENT": 6592,
      "Ġloaded": 6593,
      "Ġdies": 6594,
      "ĠAnna": 6595,
      "Ġlink": 6596,
      "aron": 6597,
      "Ġbreaks": 6598,
      "Ġensure": 6599,
      "Ġreward": 6600,
      "Ġquit": 6601,
      "Ġscratch": 6602,
      "Ġconsumed": 6603,
      "ĠEmpire": 6604,
      "ples": 6605,
      "Ġtransfer": 6606,
      "Ġarrow": 6607,
      "Ġgranted": 6608,
      "Ġboot": 6609,
      "Ġstring": 6610,
      "Ġdod": 6611,
      "Ġmarked": 6612,
      "Ġnin": 6613,
      "ĠTen": 6614,
      "Ġcong": 6615,
      "Ġcake": 6616,
      "ĠFre": 6617,
      "looking": 6618,
      "Ġstolen": 6619,
      "Ġdelight": 6620,
      "Ġpilot": 6621,
      "Ġsuck": 6622,
      "50": 6623,
      "Ġenjoying": 6624,
      "Ġburnt": 6625,
      "aine": 6626,
      "LY": 6627,
      "iqu": 6628,
      "Ġbless": 6629,
      "Ġurge": 6630,
      "Ġoppon": 6631,
      "Ġpity": 6632,
      "Ġclosely": 6633,
      "Ġgenerations": 6634,
      "Ġdepths": 6635,
      "Ġabilities": 6636,
      "izes": 6637,
      "Ġadvice": 6638,
      "Ġitems": 6639,
      "Ġinevitable": 6640,
      "Ġshone": 6641,
      "Ġunre": 6642,
      "Ġmixed": 6643,
      "Ġsandwich": 6644,
      "Ġaccur": 6645,
      "Ġtests": 6646,
      "Ġadvantage": 6647,
      "Ġcorridor": 6648,
      "Ġaccidentally": 6649,
      "Ġblocks": 6650,
      "Ġzombie": 6651,
      "ĠReg": 6652,
      "urance": 6653,
      "Ġguilty": 6654,
      "Ġstepping": 6655,
      "Ġglimpse": 6656,
      "Ġstiff": 6657,
      "Ġmidnight": 6658,
      "Ġsheer": 6659,
      "Ġjournal": 6660,
      "Ġporch": 6661,
      "Ġthud": 6662,
      "Ġeggs": 6663,
      "itors": 6664,
      "ĠTru": 6665,
      "Ġgreed": 6666,
      "....''": 6667,
      "ĠDude": 6668,
      "Ġmanip": 6669,
      "Ġfacility": 6670,
      "alous": 6671,
      "ĠLuke": 6672,
      "Ġretrie": 6673,
      "ĠBlue": 6674,
      "Ġdocument": 6675,
      "Ġwing": 6676,
      "ĠHu": 6677,
      "zard": 6678,
      "ĠAsh": 6679,
      "Ġballs": 6680,
      "Ġting": 6681,
      "Ġsqueezed": 6682,
      "Ġratt": 6683,
      "Ġcoughed": 6684,
      "Ġpissed": 6685,
      "Ġdot": 6686,
      "Ġswords": 6687,
      "ĠHumanity": 6688,
      "Ġgrowled": 6689,
      "Ġexhausted": 6690,
      "ĠCoun": 6691,
      "Ġpatch": 6692,
      "Ġfiring": 6693,
      "Ġpleased": 6694,
      "Ġfulf": 6695,
      "rist": 6696,
      "Ġgarb": 6697,
      "Ġlots": 6698,
      "ĠRun": 6699,
      "Ġthread": 6700,
      "ston": 6701,
      "ĠChan": 6702,
      "Ġshouts": 6703,
      "Ġboyfriend": 6704,
      "Ġoverhead": 6705,
      "Ġgy": 6706,
      "Ġfancy": 6707,
      "Ġhugged": 6708,
      "ĠSomehow": 6709,
      "ĠWest": 6710,
      "Ġgrandmother": 6711,
      "12": 6712,
      "ĠTrump": 6713,
      "Ġped": 6714,
      "icted": 6715,
      "renaline": 6716,
      "Ġexpress": 6717,
      "Ġapple": 6718,
      "Ġgrabs": 6719,
      "Ġrefer": 6720,
      "Ġbadly": 6721,
      "anches": 6722,
      "Ġtale": 6723,
      "Ġfence": 6724,
      "Ġpregn": 6725,
      "ĠSever": 6726,
      "ĠUN": 6727,
      "ĠBrad": 6728,
      "Ġsliding": 6729,
      "Ġexposed": 6730,
      "Ġmeters": 6731,
      "Ġconfirm": 6732,
      "Ġupd": 6733,
      "oh": 6734,
      "Ġrole": 6735,
      "Ġfuel": 6736,
      "Ġbehav": 6737,
      "ĠSix": 6738,
      "Ġlighting": 6739,
      "45": 6740,
      "Ġissues": 6741,
      "Ġancest": 6742,
      "Ġchocolate": 6743,
      "Ġfled": 6744,
      "osing": 6745,
      "Ġsneak": 6746,
      "ena": 6747,
      "ett": 6748,
      "atically": 6749,
      "ĠVict": 6750,
      "Ġpackage": 6751,
      "inder": 6752,
      "ĠHouse": 6753,
      "Ġrobe": 6754,
      "Ġank": 6755,
      "Ġwise": 6756,
      "Ġrubbing": 6757,
      "Ġlimited": 6758,
      "Ġoccasionally": 6759,
      "Ġcorpor": 6760,
      "Ġhyp": 6761,
      "Ġignoring": 6762,
      "mi": 6763,
      "Ġdiscovery": 6764,
      "Ġimpat": 6765,
      "Ġours": 6766,
      "Ġtheory": 6767,
      "asper": 6768,
      "Ġwasted": 6769,
      "ran": 6770,
      "Ġgesture": 6771,
      "Ġperman": 6772,
      "Ġemail": 6773,
      "Ġparad": 6774,
      "Ġdragons": 6775,
      "ĠLooks": 6776,
      "ĠDam": 6777,
      "pected": 6778,
      "ĠFucking": 6779,
      "oles": 6780,
      "ino": 6781,
      "Ġkicking": 6782,
      "Ġaloud": 6783,
      "Ġpanel": 6784,
      "Ġdirections": 6785,
      "Ġtub": 6786,
      "Ġsucked": 6787,
      "Ġbegging": 6788,
      "ĠâĢĶ": 6789,
      "rowed": 6790,
      "Ġtrailed": 6791,
      "bris": 6792,
      "ĠKim": 6793,
      "ĠChuck": 6794,
      "Ġsmirked": 6795,
      "ube": 6796,
      "Ġtrap": 6797,
      "ALL": 6798,
      "Ġlevels": 6799,
      "ĠPri": 6800,
      "Ġunconscious": 6801,
      "mind": 6802,
      "Ġtoy": 6803,
      "ĠNE": 6804,
      "Ġgenie": 6805,
      "hand": 6806,
      "geant": 6807,
      "ĠSund": 6808,
      "but": 6809,
      "istent": 6810,
      "ea": 6811,
      "human": 6812,
      "Ġcrump": 6813,
      "Ġwhiskey": 6814,
      "Ġpalms": 6815,
      "ocaly": 6816,
      "ĠSwe": 6817,
      "Ġslapped": 6818,
      "da": 6819,
      "beat": 6820,
      "Ġeyel": 6821,
      "ĠReddit": 6822,
      "Ġchamp": 6823,
      "Ġobjects": 6824,
      "Ġirrit": 6825,
      "Ġfasc": 6826,
      "Ġconso": 6827,
      "itional": 6828,
      "Ġgroups": 6829,
      "UN": 6830,
      "bes": 6831,
      "Ġsuggested": 6832,
      "á´": 6833,
      "Ġlimp": 6834,
      "Ġbartender": 6835,
      "erable": 6836,
      "Ġtempor": 6837,
      "99": 6838,
      "hell": 6839,
      "ĠHapp": 6840,
      "Ġweren": 6841,
      "!!!": 6842,
      "Ġdeserved": 6843,
      "Ġstroll": 6844,
      "Ġenormous": 6845,
      "Ġadjust": 6846,
      "Ġisol": 6847,
      "Ġtas": 6848,
      "ĠRel": 6849,
      "ĠSouth": 6850,
      "Ġdistur": 6851,
      "icated": 6852,
      "ĠMer": 6853,
      "arts": 6854,
      "unny": 6855,
      "Ġdescribed": 6856,
      "Ġgarage": 6857,
      "veled": 6858,
      "Ġhotel": 6859,
      "Ġcredit": 6860,
      "ĠJoker": 6861,
      "Ġfears": 6862,
      "âĢ¦.": 6863,
      "Ġcann": 6864,
      "Ġflickered": 6865,
      "lights": 6866,
      "Ġspreading": 6867,
      "ĠActually": 6868,
      "ĠSeriously": 6869,
      "Ġtape": 6870,
      "Ġbrains": 6871,
      "comments": 6872,
      "Ġefforts": 6873,
      "iable": 6874,
      "Ġlean": 6875,
      "Ġ22": 6876,
      "Ġfet": 6877,
      "Ġclue": 6878,
      "Ġchains": 6879,
      "Ġsooner": 6880,
      "anked": 6881,
      "Ġproduced": 6882,
      "Ġsed": 6883,
      "icism": 6884,
      "Ġcrimson": 6885,
      "Ġdigging": 6886,
      "ĠChinese": 6887,
      "Ġgor": 6888,
      "And": 6889,
      "Ġeduc": 6890,
      "Ġrelaxed": 6891,
      "Ġlighter": 6892,
      "Ġrhythm": 6893,
      "Ġmile": 6894,
      "Ġbranches": 6895,
      "Ġdegree": 6896,
      "Ġnewly": 6897,
      "Ġskill": 6898,
      "Ġrarely": 6899,
      "ĠMill": 6900,
      "Ġbrick": 6901,
      "sect": 6902,
      "Ġobliv": 6903,
      "Ġcasual": 6904,
      "Ġsank": 6905,
      "Ġmotioned": 6906,
      "Ġfuckin": 6907,
      "load": 6908,
      "Ġpurcha": 6909,
      "Ġvictims": 6910,
      "ĠWat": 6911,
      "Ġindust": 6912,
      "inate": 6913,
      "ĠGold": 6914,
      "Ġcracks": 6915,
      "Ġcomprehe": 6916,
      "Ġtraveled": 6917,
      "Ġaccompan": 6918,
      "Ġbrighter": 6919,
      "Ġtouching": 6920,
      "Ġstu": 6921,
      "Ġskies": 6922,
      "erer": 6923,
      "year": 6924,
      "Ġripp": 6925,
      "Ġunderground": 6926,
      "Ġstead": 6927,
      "Ġlimit": 6928,
      "ilst": 6929,
      "ĠConf": 6930,
      "yard": 6931,
      "Ġprotest": 6932,
      "Ġaxe": 6933,
      "Ġtang": 6934,
      "Ġexpert": 6935,
      "ĠNat": 6936,
      "Ġsought": 6937,
      "ĠRussia": 6938,
      "Ġclever": 6939,
      "Ġbud": 6940,
      "agg": 6941,
      "ught": 6942,
      "Ġdarker": 6943,
      "Ġknelt": 6944,
      "Ġbegged": 6945,
      "Ġrom": 6946,
      "Ġsquir": 6947,
      "Ġflin": 6948,
      "ĠLou": 6949,
      "Ġstudying": 6950,
      "Ġdepartment": 6951,
      "atter": 6952,
      "Writing": 6953,
      "Ġgained": 6954,
      "Ġchemical": 6955,
      "ato": 6956,
      "ĠBre": 6957,
      "Ġspeaker": 6958,
      "Ġmodel": 6959,
      "Ġdamp": 6960,
      "olves": 6961,
      "Ġflee": 6962,
      "ĠRoger": 6963,
      "That": 6964,
      "Ġblackness": 6965,
      "pit": 6966,
      "Ġvig": 6967,
      "Ġhandsome": 6968,
      "Ġcuts": 6969,
      "Ġcapital": 6970,
      "Ġlegend": 6971,
      "ĠHarold": 6972,
      "Ġlaunch": 6973,
      "Ġcoast": 6974,
      "Ġanxiety": 6975,
      "Ġhesitated": 6976,
      "xed": 6977,
      "anged": 6978,
      "Ġcommitted": 6979,
      "wor": 6980,
      "ris": 6981,
      "Ġrude": 6982,
      "Ġplacing": 6983,
      "ipl": 6984,
      "Ġapparent": 6985,
      "Prom": 6986,
      "ader": 6987,
      "Ġstabbed": 6988,
      "Ġglare": 6989,
      "Ġrear": 6990,
      "Ġpercent": 6991,
      "Ġmattered": 6992,
      "Ġaimed": 6993,
      "Ġhandful": 6994,
      "Ġentering": 6995,
      "Ġpassenger": 6996,
      "OOOO": 6997,
      "stone": 6998,
      "iece": 6999,
      "Ġscars": 7000,
      "Ġlabor": 7001,
      "Ġmeas": 7002,
      "Ġscary": 7003,
      "Ġsatisfied": 7004,
      "Ġanticipation": 7005,
      "Ġhighly": 7006,
      "inn": 7007,
      "tr": 7008,
      "Ġdozens": 7009,
      "Ġrip": 7010,
      "Ġcarved": 7011,
      "pri": 7012,
      "Ġgasp": 7013,
      "ĠEither": 7014,
      "Ġoccasional": 7015,
      "bles": 7016,
      "ste": 7017,
      "Ġsorrow": 7018,
      "Ġeh": 7019,
      "Ġneedle": 7020,
      "IL": 7021,
      "erted": 7022,
      "Ġglorious": 7023,
      "icious": 7024,
      "Ġlawyer": 7025,
      "ĠOthers": 7026,
      "Ġink": 7027,
      "ĠEnd": 7028,
      "ifically": 7029,
      "Ġeast": 7030,
      "Ġawesome": 7031,
      "Ġheavens": 7032,
      "Ġprey": 7033,
      "Ġbust": 7034,
      "Ġarrival": 7035,
      "keep": 7036,
      "ĠDE": 7037,
      "Ġreligious": 7038,
      "ittered": 7039,
      "Ġhollow": 7040,
      "ĠSeveral": 7041,
      "Ġstamm": 7042,
      "Ġdistinct": 7043,
      "Ġing": 7044,
      "ffered": 7045,
      "Ġpunched": 7046,
      "Ġrequire": 7047,
      "Ġdeclared": 7048,
      "onsense": 7049,
      "Ġseparate": 7050,
      "ĠEll": 7051,
      "Ġdescended": 7052,
      "ĠDead": 7053,
      "ology": 7054,
      "Ġhip": 7055,
      "Ġscow": 7056,
      "Ġdram": 7057,
      "Ġlandscape": 7058,
      "bbling": 7059,
      "Ġquarter": 7060,
      "Ġaltern": 7061,
      "ĠChina": 7062,
      "Ġwest": 7063,
      "Ġgrate": 7064,
      "Ġchannel": 7065,
      "Ġchim": 7066,
      "Ġspeaks": 7067,
      "Ġinsisted": 7068,
      "Ġpierced": 7069,
      "born": 7070,
      "asty": 7071,
      "Ġignor": 7072,
      "Ġdisappointed": 7073,
      "Ġdele": 7074,
      "Ġlaunched": 7075,
      "Ġintrodu": 7076,
      "ĠAust": 7077,
      "Ġcomplic": 7078,
      "orce": 7079,
      "Ġpreviously": 7080,
      "Ġconsole": 7081,
      "rating": 7082,
      "ĠOffic": 7083,
      "Ġmillenn": 7084,
      "Ġmadness": 7085,
      "ĠAp": 7086,
      "arded": 7087,
      "Ġnewspaper": 7088,
      "Ġintrod": 7089,
      "Ġstates": 7090,
      "Ġseason": 7091,
      "ĠSimon": 7092,
      "Ġquality": 7093,
      "Ġjokes": 7094,
      "ountain": 7095,
      "rial": 7096,
      "olly": 7097,
      "Ġclutched": 7098,
      "acking": 7099,
      "ĠWil": 7100,
      "kins": 7101,
      "Ġscale": 7102,
      "Ġprank": 7103,
      "Ġpathetic": 7104,
      "Ġquestioned": 7105,
      "Ġsleeve": 7106,
      "estly": 7107,
      "Ġgrant": 7108,
      "Ġlargest": 7109,
      "inity": 7110,
      "Ġbuttons": 7111,
      "Ġspending": 7112,
      "Ġstuffed": 7113,
      "Ġhors": 7114,
      "Ġmystery": 7115,
      "Prompts": 7116,
      "Ġremembering": 7117,
      "Ġsurprisingly": 7118,
      "Ġrent": 7119,
      "ĠKen": 7120,
      "Ġsar": 7121,
      "reet": 7122,
      "Ġproced": 7123,
      "Ġbranch": 7124,
      "mend": 7125,
      "ĠUpon": 7126,
      "GHT": 7127,
      "rors": 7128,
      "ĠWr": 7129,
      "Ġqueen": 7130,
      "ĠAlan": 7131,
      "eration": 7132,
      "Ġculture": 7133,
      "ef": 7134,
      "Ġlawn": 7135,
      "Ġassistant": 7136,
      "Ġcovers": 7137,
      "Ġflower": 7138,
      "ros": 7139,
      "Ġoutl": 7140,
      "Ġvirt": 7141,
      "ĠKn": 7142,
      "cellent": 7143,
      "ek": 7144,
      "Ġgn": 7145,
      "Ġsmells": 7146,
      "Ġeer": 7147,
      "Ġcollection": 7148,
      "Ġsirens": 7149,
      "Ġcompos": 7150,
      "Ġprecise": 7151,
      "Ġadrenaline": 7152,
      "ĠMil": 7153,
      "Ġdrawer": 7154,
      "ĠJu": 7155,
      "uded": 7156,
      "Ġpsycho": 7157,
      "Ġsust": 7158,
      "ĠNight": 7159,
      "Ġtrial": 7160,
      "emed": 7161,
      "Ġsoil": 7162,
      "Ġspilled": 7163,
      "Ġdollar": 7164,
      "Ġcant": 7165,
      "Ġnails": 7166,
      "andy": 7167,
      "Ġtesting": 7168,
      "Ġfortune": 7169,
      "ĠHAVE": 7170,
      "ĠHalf": 7171,
      "Ġshotgun": 7172,
      "itar": 7173,
      "ĠDou": 7174,
      "Ġphotos": 7175,
      "gered": 7176,
      "Ġcounting": 7177,
      "Ġaid": 7178,
      "Ġbeaten": 7179,
      "Ġpra": 7180,
      "Ġcollected": 7181,
      "ĠJackson": 7182,
      "Ġcases": 7183,
      "Ġelderly": 7184,
      "Ġwriter": 7185,
      "Ġbolt": 7186,
      "Ġshakes": 7187,
      "Ġdistracted": 7188,
      "Ġreplies": 7189,
      "Ġroute": 7190,
      "Ġfeather": 7191,
      "know": 7192,
      "ĠDragon": 7193,
      "Ġloyal": 7194,
      "ublic": 7195,
      "ildren": 7196,
      "Ġwarned": 7197,
      "Ġkidding": 7198,
      "Ġoverwhelming": 7199,
      "Ġforcing": 7200,
      "Ġslipping": 7201,
      "ĠFriday": 7202,
      "asm": 7203,
      "Ġcompleted": 7204,
      "Ġtherap": 7205,
      "Ġblinking": 7206,
      "Ġgathering": 7207,
      "Ġshore": 7208,
      "Ġassault": 7209,
      "Ġunexpected": 7210,
      "Ġsisters": 7211,
      "ĠSub": 7212,
      "ĠCra": 7213,
      "Ġchoked": 7214,
      "ĠLI": 7215,
      "Ġlazy": 7216,
      "mpt": 7217,
      "Ġcorpses": 7218,
      "Ġenthus": 7219,
      "ooped": 7220,
      "Ġprotection": 7221,
      "uary": 7222,
      "Ġasse": 7223,
      "ĠLisa": 7224,
      "irts": 7225,
      "Ġjail": 7226,
      "Ġobserv": 7227,
      "Ġtypical": 7228,
      "ĠWere": 7229,
      "mark": 7230,
      "Ġshapes": 7231,
      "Ġwildly": 7232,
      "ĠJenny": 7233,
      "utenant": 7234,
      "RA": 7235,
      "ape": 7236,
      "Ġtaller": 7237,
      "Ġhook": 7238,
      "ĠAss": 7239,
      "ags": 7240,
      "iders": 7241,
      "Ġencou": 7242,
      "*.''": 7243,
      "Ġmath": 7244,
      "ĠColl": 7245,
      "avement": 7246,
      "Ġempire": 7247,
      "Ġtoes": 7248,
      "Ġfury": 7249,
      "Ġdrun": 7250,
      "Ġilleg": 7251,
      "Ġscre": 7252,
      "Ġplayer": 7253,
      "Ġfifth": 7254,
      "15": 7255,
      "Ġhopefully": 7256,
      "Ġdeliver": 7257,
      "haha": 7258,
      "Ġreligion": 7259,
      "Ġwreck": 7260,
      "Ġmarriage": 7261,
      "Ġcircumstances": 7262,
      "ĠFear": 7263,
      "Ġbills": 7264,
      "ĠNice": 7265,
      "Ġshaped": 7266,
      "Ġsymp": 7267,
      "Ġcrawl": 7268,
      "Ġbeam": 7269,
      "Ġblowing": 7270,
      "Ġapologize": 7271,
      "Ġshifting": 7272,
      "Ġmurdered": 7273,
      "isk": 7274,
      "ĠFace": 7275,
      "Ġshed": 7276,
      "Ġswitched": 7277,
      "ĠJoseph": 7278,
      "lished": 7279,
      "inte": 7280,
      "Ġheal": 7281,
      "Ġcontinuing": 7282,
      "Ġstrode": 7283,
      "Ġreflected": 7284,
      "Well": 7285,
      "pass": 7286,
      "Ġcriminal": 7287,
      "Ġleapt": 7288,
      "Ġdetective": 7289,
      "Ġstraw": 7290,
      "ĠSusan": 7291,
      "NA": 7292,
      "Ġaccording": 7293,
      "Ġcomputers": 7294,
      "Ġabsor": 7295,
      "Ġrobots": 7296,
      "Ġsurvivors": 7297,
      "Ġmouse": 7298,
      "iverse": 7299,
      "Ġflooded": 7300,
      "roph": 7301,
      "while": 7302,
      "Ġartificial": 7303,
      "leton": 7304,
      "Ġspaces": 7305,
      "Ġwarriors": 7306,
      "Ġpha": 7307,
      "ĠDa": 7308,
      "Ġscare": 7309,
      "Ġheels": 7310,
      "Ġnoticing": 7311,
      "Ġechoing": 7312,
      "Ġbillions": 7313,
      "Ġexpand": 7314,
      "Ġcasually": 7315,
      "Ġlegal": 7316,
      "Ġdisgusting": 7317,
      "Ġaren": 7318,
      "Ġcollapse": 7319,
      "iac": 7320,
      "Ġsoaked": 7321,
      "ĠAng": 7322,
      "Ġprofessional": 7323,
      "Ġchase": 7324,
      "ĠSal": 7325,
      "Ġsalt": 7326,
      "Ġcomprehend": 7327,
      "Ġthirst": 7328,
      "ician": 7329,
      "iar": 7330,
      "Ġhumor": 7331,
      "ĠKnight": 7332,
      "Ġbombs": 7333,
      "Ġshred": 7334,
      "Ġinstr": 7335,
      "Ġhighest": 7336,
      "fact": 7337,
      "Ġflip": 7338,
      "Ġmovements": 7339,
      "jo": 7340,
      "Ġflung": 7341,
      "Ġabruptly": 7342,
      "ĠMir": 7343,
      "Ġidentity": 7344,
      "Ġdism": 7345,
      "Ġpolitical": 7346,
      "Ġbond": 7347,
      "Ġgloves": 7348,
      "ĠDet": 7349,
      "Ġlasted": 7350,
      "Ġimprove": 7351,
      "atives": 7352,
      "Ġsealed": 7353,
      "Ġoffering": 7354,
      "IR": 7355,
      "rey": 7356,
      "Ġtoys": 7357,
      "Ġsticking": 7358,
      "Ġshelf": 7359,
      "Ġcrown": 7360,
      "Ġalert": 7361,
      "Ġimper": 7362,
      "ĠDep": 7363,
      "Ġtapping": 7364,
      "ĠKill": 7365,
      "Ġrefuse": 7366,
      "Ġcustomer": 7367,
      "Ġrelieved": 7368,
      "ĠNope": 7369,
      "Ġcrimes": 7370,
      "Ġdeadly": 7371,
      "Ġcracking": 7372,
      "Ġgrinning": 7373,
      "umn": 7374,
      "ĠHall": 7375,
      "Ġvisited": 7376,
      "ishes": 7377,
      "ĠCam": 7378,
      "ĠEast": 7379,
      "WritingPrompts": 7380,
      "Ġpulse": 7381,
      "mble": 7382,
      "vy": 7383,
      "inda": 7384,
      "Ġstammered": 7385,
      "va": 7386,
      "Ġglancing": 7387,
      "Ġdragging": 7388,
      "agues": 7389,
      "urday": 7390,
      "Ġjew": 7391,
      "hu": 7392,
      "ĠAaron": 7393,
      "arer": 7394,
      "Ġjol": 7395,
      "aware": 7396,
      "ĠDanny": 7397,
      "bon": 7398,
      "Ġrecords": 7399,
      "Ġupright": 7400,
      "Ġsilhou": 7401,
      "Ġnest": 7402,
      "Ġunl": 7403,
      "Ġfrightened": 7404,
      "bling": 7405,
      "ĠSunday": 7406,
      "Ġgenius": 7407,
      "âĸ": 7408,
      "Ġbowed": 7409,
      "Ġwhispering": 7410,
      "Ġgarbage": 7411,
      "Ġsuperior": 7412,
      "Ġequal": 7413,
      "Ġphrase": 7414,
      "Ġwire": 7415,
      "ĠSqu": 7416,
      "lor": 7417,
      "Ġdriven": 7418,
      "Ġcandle": 7419,
      "Ġlately": 7420,
      "Ġengulf": 7421,
      "Ġknuck": 7422,
      "Ġinteract": 7423,
      "Ġreported": 7424,
      "Ġmelted": 7425,
      "Ġflowed": 7426,
      "Ġsuffered": 7427,
      "eness": 7428,
      "Ġgall": 7429,
      "ivity": 7430,
      "Ġselfish": 7431,
      "Ġweakness": 7432,
      "ĠJessica": 7433,
      "Ġmeasure": 7434,
      "adem": 7435,
      "abor": 7436,
      "Ġtune": 7437,
      "Ġtool": 7438,
      "Ġlesson": 7439,
      "itching": 7440,
      "Ġrevenge": 7441,
      "Ġsets": 7442,
      "Ġrig": 7443,
      "illa": 7444,
      "Ġhesitation": 7445,
      "Ġsuperher": 7446,
      "How": 7447,
      "Ġdreamed": 7448,
      "Ġseated": 7449,
      "Ġdetect": 7450,
      "Ġwiping": 7451,
      "Ġnetwork": 7452,
      "ĠIntern": 7453,
      "UM": 7454,
      "ibilities": 7455,
      "Ġrounds": 7456,
      "Ġelectron": 7457,
      "Ġpleaded": 7458,
      "Ġstreaming": 7459,
      "loc": 7460,
      "Ġdestroying": 7461,
      "Ġcous": 7462,
      "Ġdried": 7463,
      "Ġmyth": 7464,
      "Ġruins": 7465,
      "Ġpudd": 7466,
      "ĠMac": 7467,
      "umes": 7468,
      "Ġcircles": 7469,
      "Ġimpatient": 7470,
      "SS": 7471,
      "Ġpasses": 7472,
      "Do": 7473,
      "Ġdu": 7474,
      "Ġinstructions": 7475,
      "Ġnaturally": 7476,
      "Ġ^^": 7477,
      "Ġzombies": 7478,
      "Ġdeafening": 7479,
      "ula": 7480,
      "enses": 7481,
      "Ġdece": 7482,
      "Ġcommunicate": 7483,
      "Ġstal": 7484,
      "Ġbrows": 7485,
      "bbles": 7486,
      "ĠLuckily": 7487,
      "Ġfer": 7488,
      "Ġsnake": 7489,
      "Ġexciting": 7490,
      "Ġnerves": 7491,
      "lying": 7492,
      "ĠPrince": 7493,
      "Ġcrush": 7494,
      "Ġassigned": 7495,
      "Ġappropri": 7496,
      "Ġannounce": 7497,
      "Ġcrumpled": 7498,
      "Ġswore": 7499,
      "Ġpersonally": 7500,
      "Ġelectricity": 7501,
      "Ġsecure": 7502,
      "Ġpavement": 7503,
      "amiliar": 7504,
      "Ġload": 7505,
      "Ġstrapped": 7506,
      "Ġhello": 7507,
      "Ġintens": 7508,
      "Ġtrunk": 7509,
      "Ġtreated": 7510,
      "Ġvacation": 7511,
      "Ġmaintain": 7512,
      "sha": 7513,
      "Ġnations": 7514,
      "Ġtense": 7515,
      "Ġdiam": 7516,
      "Ġerror": 7517,
      "loved": 7518,
      "Ġilluminated": 7519,
      "Ġphil": 7520,
      "Ġattacks": 7521,
      "Ġminim": 7522,
      "Ġencoun": 7523,
      "Ġimmense": 7524,
      "vill": 7525,
      "Ġbastards": 7526,
      "Ġdump": 7527,
      "ĠGar": 7528,
      "Ġwaters": 7529,
      "ancer": 7530,
      "Ġstatus": 7531,
      "Ġconsequences": 7532,
      "ĠMur": 7533,
      "ĠYears": 7534,
      "So": 7535,
      "boy": 7536,
      "Ġcosm": 7537,
      "Ġappoint": 7538,
      "RO": 7539,
      "Ġmild": 7540,
      "Ġbottles": 7541,
      "Ġphysically": 7542,
      "cies": 7543,
      "liness": 7544,
      "Ġradiation": 7545,
      "Ġfilm": 7546,
      "Ġtables": 7547,
      "Ġpipe": 7548,
      "Ġuncertain": 7549,
      "ĠSay": 7550,
      "Ġblades": 7551,
      "Ġroughly": 7552,
      "Ġvalley": 7553,
      "Ġfailing": 7554,
      "Ġtube": 7555,
      "Ġstack": 7556,
      "Ġimmortality": 7557,
      "point": 7558,
      "Ġchoices": 7559,
      "Ġmedicine": 7560,
      "ĠMust": 7561,
      "Ġsubtle": 7562,
      "hhhh": 7563,
      "Ġsimult": 7564,
      "Ġcandy": 7565,
      "Ġmarble": 7566,
      "Ġmiracle": 7567,
      "Ġnu": 7568,
      "Ġworkers": 7569,
      "Ġfiction": 7570,
      "Ġscru": 7571,
      "Ġregister": 7572,
      "Ġcaptured": 7573,
      "ga": 7574,
      "ĠTon": 7575,
      "Ġscoff": 7576,
      "Ġscrambled": 7577,
      "ĠGabriel": 7578,
      "unte": 7579,
      "Ġrealise": 7580,
      "erving": 7581,
      "Ġsteam": 7582,
      "Ġgiggled": 7583,
      "Ġmel": 7584,
      "Ġassured": 7585,
      "ĠCouncil": 7586,
      "Ġsob": 7587,
      "utes": 7588,
      "Ġcrystal": 7589,
      "itory": 7590,
      "Ġcomforting": 7591,
      "cial": 7592,
      "Ġbike": 7593,
      "ctions": 7594,
      "add": 7595,
      "fortunate": 7596,
      "Ġemotional": 7597,
      "Ġreception": 7598,
      "top": 7599,
      "Ġmum": 7600,
      "rd": 7601,
      "Ġmagaz": 7602,
      "ĠHoney": 7603,
      "ĠTaking": 7604,
      "Ġutterly": 7605,
      "Ġdagger": 7606,
      "Ġstones": 7607,
      "Ġclimbing": 7608,
      "ĠQuick": 7609,
      "Ġthreatening": 7610,
      "Ġchasing": 7611,
      "Ġflashes": 7612,
      "ĠBab": 7613,
      "Ġdwar": 7614,
      "Ġoddly": 7615,
      "chers": 7616,
      "Ġshine": 7617,
      "Ġtroops": 7618,
      "Ġpersp": 7619,
      "Ġresistance": 7620,
      "pm": 7621,
      "ĠBro": 7622,
      "Ġparties": 7623,
      "Ġangrily": 7624,
      "aved": 7625,
      "sized": 7626,
      "yss": 7627,
      "Ġmajority": 7628,
      "Ġwhilst": 7629,
      "Ġtrace": 7630,
      "Ġreluct": 7631,
      "ĠNathan": 7632,
      "Ġslamming": 7633,
      "Ġdealing": 7634,
      "ĠSpace": 7635,
      "Ġtempt": 7636,
      "Ġpossess": 7637,
      "Ġtasted": 7638,
      "Ġenvelop": 7639,
      "wind": 7640,
      "Ġraw": 7641,
      "Ġlaser": 7642,
      "ĠAcc": 7643,
      "Ġtorment": 7644,
      "ammit": 7645,
      "ĠAmy": 7646,
      "Ġsphere": 7647,
      "Ġwrit": 7648,
      "Ġclasses": 7649,
      "Ġhalls": 7650,
      "Ġbeep": 7651,
      "ĠScott": 7652,
      "pter": 7653,
      "ĠCong": 7654,
      "wr": 7655,
      "uesday": 7656,
      "Ġexception": 7657,
      "ĠNah": 7658,
      "Ġow": 7659,
      "iration": 7660,
      "ĠMaj": 7661,
      "mering": 7662,
      "Ġhorses": 7663,
      "Ġsung": 7664,
      "ĠALL": 7665,
      "Ġglobal": 7666,
      "Ġovert": 7667,
      "ĠVictor": 7668,
      "Ġwhipped": 7669,
      "Ġrocket": 7670,
      "ĠGodd": 7671,
      "Ġbrim": 7672,
      "achel": 7673,
      "Ġclar": 7674,
      "Ġsquinted": 7675,
      "Ġwha": 7676,
      "Ġactivity": 7677,
      "Ġastron": 7678,
      "ĠNAS": 7679,
      "Ġrights": 7680,
      "Ġsatell": 7681,
      "ocalypse": 7682,
      "Ġorg": 7683,
      "ĠPark": 7684,
      "Ġbold": 7685,
      "Ġdepression": 7686,
      "Ġintention": 7687,
      "Ġdisaster": 7688,
      "ĠArt": 7689,
      "arant": 7690,
      "Ġec": 7691,
      "Ġmanif": 7692,
      "Ġnovel": 7693,
      "Ġpurse": 7694,
      "acity": 7695,
      "armed": 7696,
      "bor": 7697,
      "erk": 7698,
      "Ġreview": 7699,
      "steroid": 7700,
      "Ġmentally": 7701,
      "cel": 7702,
      "umbles": 7703,
      "ura": 7704,
      "Ġbore": 7705,
      "Ġragged": 7706,
      "Ġcounted": 7707,
      "ĠAw": 7708,
      "long": 7709,
      "mist": 7710,
      "Ġtriump": 7711,
      "Ġsweating": 7712,
      "Ġtorso": 7713,
      "Ġpositive": 7714,
      "Ġjet": 7715,
      "ĠOff": 7716,
      "ĠRa": 7717,
      "Ġimmediate": 7718,
      "Ġsomet": 7719,
      "Ġjealous": 7720,
      "Ġdebris": 7721,
      "Ġremark": 7722,
      "lers": 7723,
      "Ġwinning": 7724,
      "ĠDel": 7725,
      "Ġbliss": 7726,
      "Ġsevere": 7727,
      "ĠSaturday": 7728,
      "Ġdimension": 7729,
      "ĠChief": 7730,
      "Ġunfold": 7731,
      "Ġspirits": 7732,
      "Ġincreased": 7733,
      "Ġcurtains": 7734,
      "Ġassign": 7735,
      "Ġchief": 7736,
      "Ġtrusted": 7737,
      "___": 7738,
      "Ġadop": 7739,
      "Ġpossibility": 7740,
      "Ġkinds": 7741,
      "Ġadmitted": 7742,
      "ĠEmperor": 7743,
      "Ġteleport": 7744,
      "Ġdared": 7745,
      "Ġargument": 7746,
      "apor": 7747,
      "Ġabyss": 7748,
      "Ġfloors": 7749,
      "Ġgrasped": 7750,
      "ĠObama": 7751,
      "Ġhopped": 7752,
      "Ġimpressive": 7753,
      "Ġtilted": 7754,
      "Ġjumps": 7755,
      "Ġhudd": 7756,
      "ĠHelp": 7757,
      "ĠSher": 7758,
      "Ġum": 7759,
      "ĠFar": 7760,
      "Ġcells": 7761,
      "Ġintently": 7762,
      "Ġdrunken": 7763,
      "Ġtin": 7764,
      "ĠAndy": 7765,
      "ĠNeither": 7766,
      "Ġburden": 7767,
      "ships": 7768,
      "aints": 7769,
      "Ġawkwardly": 7770,
      "RI": 7771,
      "Ġproved": 7772,
      "ailed": 7773,
      "Ġopinion": 7774,
      "Ġmour": 7775,
      "Ġplun": 7776,
      "ĠBoy": 7777,
      "ĠPlan": 7778,
      "Ġappreciated": 7779,
      "town": 7780,
      "Ġbasket": 7781,
      "Ġlayer": 7782,
      "lord": 7783,
      "ĠDear": 7784,
      "Ġworthy": 7785,
      "Ġge": 7786,
      "rences": 7787,
      "Ġhopeless": 7788,
      "Ġhatch": 7789,
      "uits": 7790,
      "run": 7791,
      "Ġinhabit": 7792,
      "Ġconclusion": 7793,
      "ĠID": 7794,
      "Ġslim": 7795,
      "Ġglowed": 7796,
      "Ġscript": 7797,
      "rees": 7798,
      "Ġkeyboard": 7799,
      "ĠEliz": 7800,
      "Ġcontrolled": 7801,
      "Ġcaps": 7802,
      "When": 7803,
      "Ġengines": 7804,
      "Ġdivine": 7805,
      "Ġareas": 7806,
      "icop": 7807,
      "iture": 7808,
      "onn": 7809,
      "ucing": 7810,
      "Ġriding": 7811,
      "Ġcleaned": 7812,
      "Ġconven": 7813,
      "Ġladies": 7814,
      "Ġwield": 7815,
      "Ġresear": 7816,
      "Ġfoul": 7817,
      "Ġsummoned": 7818,
      "inations": 7819,
      "ĠRay": 7820,
      "Ġopponent": 7821,
      "Ġcolony": 7822,
      "Ġparked": 7823,
      "than": 7824,
      "Ġstretching": 7825,
      "ĠHand": 7826,
      "Ġpatterns": 7827,
      "Ġstrangers": 7828,
      "azing": 7829,
      "ĠGOD": 7830,
      "phan": 7831,
      "gic": 7832,
      "Ġjunk": 7833,
      "Ġhelicop": 7834,
      "Ġincom": 7835,
      "Ġsolve": 7836,
      "Ġvolunte": 7837,
      "shirt": 7838,
      "ĠUsually": 7839,
      "Ġais": 7840,
      "itter": 7841,
      "ĠFrench": 7842,
      "ANG": 7843,
      "Ġcrisp": 7844,
      "ĠAfric": 7845,
      "Ġunfortunate": 7846,
      "Ġwrists": 7847,
      "Ġtales": 7848,
      "Ġswinging": 7849,
      "Ġrelatively": 7850,
      "ishly": 7851,
      "issa": 7852,
      "Ġnotebook": 7853,
      "rek": 7854,
      "mma": 7855,
      "Ġmotiv": 7856,
      "asted": 7857,
      "Ġbounced": 7858,
      "Ġmechanical": 7859,
      "Ġrecom": 7860,
      "iments": 7861,
      "Ġnothingness": 7862,
      "Ġrode": 7863,
      "ĠLaw": 7864,
      "pro": 7865,
      "otch": 7866,
      "Ġwebs": 7867,
      "Ġprayer": 7868,
      "Ġwithd": 7869,
      "Ġmuster": 7870,
      "Ġoak": 7871,
      "ethe": 7872,
      "ĠGoogle": 7873,
      "Ġhired": 7874,
      "ĠSen": 7875,
      "Ġtemperature": 7876,
      "bur": 7877,
      "Ġ60": 7878,
      "Ġwrap": 7879,
      "Ġscientific": 7880,
      "ĠNASA": 7881,
      "Ġangle": 7882,
      "Ġtraveling": 7883,
      "ondon": 7884,
      "Ġappe": 7885,
      "eyed": 7886,
      "ĠAgent": 7887,
      "phones": 7888,
      "Ġsobs": 7889,
      "uled": 7890,
      "Ġsounding": 7891,
      "Ġrolls": 7892,
      "fa": 7893,
      "Ġdont": 7894,
      "Ġpaperwork": 7895,
      "ĠHaving": 7896,
      "Ġdelicious": 7897,
      "Ġwandering": 7898,
      "Ġreck": 7899,
      "ĠDown": 7900,
      "ĠCH": 7901,
      "ĠMet": 7902,
      "Ġbend": 7903,
      "Ġcavern": 7904,
      "Ġflickering": 7905,
      "rer": 7906,
      "Ġsmug": 7907,
      "aud": 7908,
      "Ġdrift": 7909,
      "ĠJam": 7910,
      "ĠFranc": 7911,
      "Ġnightmares": 7912,
      "ipher": 7913,
      "Ġequally": 7914,
      "ja": 7915,
      "Ġgig": 7916,
      "Ġpregnant": 7917,
      "Ġcommit": 7918,
      "ĠHonestly": 7919,
      "Ġbeck": 7920,
      "Ġthigh": 7921,
      "Ġgrows": 7922,
      "Ġstatue": 7923,
      "Ġoperation": 7924,
      "ĠAmericans": 7925,
      "Ġglee": 7926,
      "ila": 7927,
      "Ġcrossing": 7928,
      "Ġpodium": 7929,
      "TER": 7930,
      "Ġbearing": 7931,
      "Ġbrightly": 7932,
      "ĠMommy": 7933,
      "Ġbooth": 7934,
      "ĠStanding": 7935,
      "Ġcolored": 7936,
      "Ġfond": 7937,
      "Ġcoughing": 7938,
      "Ġtens": 7939,
      "amps": 7940,
      "Ġelement": 7941,
      "force": 7942,
      "Ġcoinc": 7943,
      "Ġthreatened": 7944,
      "Ġwrinkled": 7945,
      "Ġancestors": 7946,
      "seen": 7947,
      "Ġcod": 7948,
      "arling": 7949,
      "vention": 7950,
      "Ġinvited": 7951,
      "Ġstrangely": 7952,
      "Ġcustomers": 7953,
      "Ġheadache": 7954,
      "Ġmarched": 7955,
      "Ġprisoner": 7956,
      "Ġjar": 7957,
      "Ġwherever": 7958,
      "Ġchances": 7959,
      "ĠBetter": 7960,
      "Ġbi": 7961,
      "Ġpup": 7962,
      "ĠMond": 7963,
      "Ġcott": 7964,
      "urry": 7965,
      "Ġwitnessed": 7966,
      "Ġbin": 7967,
      "Ġbuzzing": 7968,
      "Ġoutst": 7969,
      "ĠRoy": 7970,
      "Ġdeli": 7971,
      "Ġmiserable": 7972,
      "ĠMus": 7973,
      "pril": 7974,
      "Ġol": 7975,
      "Ġdoomed": 7976,
      "Ġward": 7977,
      "ĠLondon": 7978,
      "ta": 7979,
      "uish": 7980,
      "azz": 7981,
      "Ġweb": 7982,
      "iger": 7983,
      "Ġdrone": 7984,
      "Ġpromptly": 7985,
      "Ġtension": 7986,
      "Why": 7987,
      "was": 7988,
      "ĠKN": 7989,
      "Ġsentient": 7990,
      "Ġric": 7991,
      "Ġshy": 7992,
      "Ġnostr": 7993,
      "rive": 7994,
      "ĠJed": 7995,
      "Ġgenerally": 7996,
      "Ġyawn": 7997,
      "?''.": 7998,
      "Ġpir": 7999,
      "Ġdarted": 8000,
      "asant": 8001,
      "Ġroyal": 8002,
      "Ġdecisions": 8003,
      "Ġfreeze": 8004,
      "Ġhistor": 8005,
      "ĠLarry": 8006,
      "icians": 8007,
      "ees": 8008,
      "Ġware": 8009,
      "oses": 8010,
      "Ġhalluc": 8011,
      "Ġscreens": 8012,
      "Ġraces": 8013,
      "Ġexited": 8014,
      "Ġglances": 8015,
      "Ġanti": 8016,
      "Ġaccompanied": 8017,
      "Ġquant": 8018,
      "ĠWILL": 8019,
      "Ġfuriously": 8020,
      "Ġvaguely": 8021,
      "Ġx": 8022,
      "Ġbriefcase": 8023,
      "ĠTuesday": 8024,
      "Ġyards": 8025,
      "Ġpredict": 8026,
      "engers": 8027,
      "Ġhaze": 8028,
      "Ġblown": 8029,
      "Ġearned": 8030,
      "Ġspan": 8031,
      "parent": 8032,
      "ressing": 8033,
      "US": 8034,
      "Ġchir": 8035,
      "Ġdiscus": 8036,
      "Ġdelicate": 8037,
      "Ġasteroid": 8038,
      "Ġambul": 8039,
      "Ġfierce": 8040,
      "Ġrows": 8041,
      "Ġsadly": 8042,
      "UST": 8043,
      "OME": 8044,
      "ĠTimmy": 8045,
      "Ġborder": 8046,
      "Ġunison": 8047,
      "Ġcrowded": 8048,
      "Ġsighs": 8049,
      "Ġspots": 8050,
      "hens": 8051,
      "usive": 8052,
      "Ġvolume": 8053,
      "Ġcomr": 8054,
      "nels": 8055,
      "Ġveget": 8056,
      "Ġcher": 8057,
      "OT": 8058,
      "ĠCheck": 8059,
      "Ġgrief": 8060,
      "ĠYep": 8061,
      "raged": 8062,
      "ĠUgh": 8063,
      "UU": 8064,
      "ĠLead": 8065,
      "Ġunderw": 8066,
      "ĠGuard": 8067,
      "Ġjung": 8068,
      "Ġwinds": 8069,
      "Ġrecording": 8070,
      "Ġhorns": 8071,
      "Ġclassroom": 8072,
      "mitted": 8073,
      "ĠOfficer": 8074,
      "irl": 8075,
      "lasses": 8076,
      "Ġtab": 8077,
      "cend": 8078,
      "ĠED": 8079,
      "Ġearn": 8080,
      "Ġjam": 8081,
      "Ġwander": 8082,
      "iper": 8083,
      "========": 8084,
      "ĠAlf": 8085,
      "omen": 8086,
      "Ġbelonged": 8087,
      "Ġdisappointment": 8088,
      "ĠPete": 8089,
      "Ġinfluence": 8090,
      "itated": 8091,
      "ĠUP": 8092,
      "Ġconfront": 8093,
      "Ġcrouched": 8094,
      "Ġphilos": 8095,
      "Ġflaw": 8096,
      "Ġurg": 8097,
      "Ġsimulation": 8098,
      "Ġconsp": 8099,
      "Ġagents": 8100,
      "Ġprocl": 8101,
      "Ġstench": 8102,
      "ĠEN": 8103,
      "Ġprince": 8104,
      "ĠPan": 8105,
      "iveness": 8106,
      "ĠTonight": 8107,
      "Ġstall": 8108,
      "Ġprayed": 8109,
      "Ġleads": 8110,
      "ĠMat": 8111,
      "Ġcaring": 8112,
      "Ġdevices": 8113,
      "Ġswiftly": 8114,
      "Ġpuzzled": 8115,
      "Ġramp": 8116,
      "ĠAlpha": 8117,
      "Ġlifting": 8118,
      "Ġsongs": 8119,
      "Ġnavig": 8120,
      "ĠTwenty": 8121,
      "Ġsins": 8122,
      "Ġdelivered": 8123,
      "Ġproduce": 8124,
      "ĠWayne": 8125,
      "Ġvault": 8126,
      "ĠMexic": 8127,
      "ĠBarry": 8128,
      "itz": 8129,
      "Ġpencil": 8130,
      "Ġglobe": 8131,
      "col": 8132,
      "hile": 8133,
      "Ġnonsense": 8134,
      "ĠMister": 8135,
      "ĠInter": 8136,
      "Ġrevolution": 8137,
      "ainted": 8138,
      "unts": 8139,
      "iots": 8140,
      "Ġsurge": 8141,
      "Ġsimultaneously": 8142,
      "utter": 8143,
      "imated": 8144,
      "ĠLady": 8145,
      "Ġgrunted": 8146,
      "Ġshoe": 8147,
      "ĠReal": 8148,
      "Ġscratching": 8149,
      "Ġcabinet": 8150,
      "lend": 8151,
      "ĠCare": 8152,
      "Ġslightest": 8153,
      "Ġcentre": 8154,
      "Ġfrail": 8155,
      "Ġfactory": 8156,
      "Ġfavourite": 8157,
      "ĠTry": 8158,
      "Ġnoted": 8159,
      "hington": 8160,
      "Ġhumming": 8161,
      "Ġblankly": 8162,
      "uate": 8163,
      "Ġnumer": 8164,
      "Ġfee": 8165,
      "arting": 8166,
      "Ġbattlefield": 8167,
      "Ġblocked": 8168,
      "ĠClark": 8169,
      "Ġworship": 8170,
      "Ġsticks": 8171,
      "Ġpassage": 8172,
      "Ġcares": 8173,
      "opes": 8174,
      "Ġfootball": 8175,
      "Ġduck": 8176,
      "Ġceased": 8177,
      "Ġzone": 8178,
      "Ġsolemn": 8179,
      "igning": 8180,
      "Ġphysics": 8181,
      "osaur": 8182,
      "Ġpatted": 8183,
      "Ġribs": 8184,
      "Ġlid": 8185,
      "Ġintroduced": 8186,
      "ĠPower": 8187,
      "ĠLater": 8188,
      "Ġstrate": 8189,
      "Ġneatly": 8190,
      "rical": 8191,
      "Ġoldest": 8192,
      "Ġlux": 8193,
      "ĠDuring": 8194,
      "Ġtyping": 8195,
      "Ġrevolver": 8196,
      "Ġhom": 8197,
      "Ġhelps": 8198,
      "Ġgentleman": 8199,
      "Ġreads": 8200,
      "inent": 8201,
      "Ġspider": 8202,
      "ĠNOW": 8203,
      "Ġfluid": 8204,
      "ĠOutside": 8205,
      "Ġfurniture": 8206,
      "Ġspecifically": 8207,
      "ĠHead": 8208,
      "Ġpounds": 8209,
      "23": 8210,
      "Ġtwin": 8211,
      "Ġfiles": 8212,
      "Ġliber": 8213,
      "Ġdesperation": 8214,
      "alp": 8215,
      "Ġnoble": 8216,
      "Ġtypes": 8217,
      "Ġrecru": 8218,
      "Ġcowork": 8219,
      "Ġresponsibility": 8220,
      "Ġtreatment": 8221,
      "Ġtag": 8222,
      "Ġstool": 8223,
      "Ġguessed": 8224,
      "Ġunlocked": 8225,
      "Ġbunker": 8226,
      "Ġillegal": 8227,
      "Ġexists": 8228,
      "Ġschedule": 8229,
      "Ġmonot": 8230,
      "Ġrecover": 8231,
      "ĠAT": 8232,
      "Ġeman": 8233,
      "Ġunst": 8234,
      "Ġbattles": 8235,
      "ĠMed": 8236,
      "Ġmerc": 8237,
      "ĠDoc": 8238,
      "Ġselling": 8239,
      "ĠZeus": 8240,
      "IE": 8241,
      "Ġscy": 8242,
      "asped": 8243,
      "Ġfills": 8244,
      "ANT": 8245,
      "Ġcrawling": 8246,
      "Ġwast": 8247,
      "Ġcooking": 8248,
      "Ġmurmured": 8249,
      "Ġpersonality": 8250,
      "Ġplanted": 8251,
      "Ġfrustrated": 8252,
      "Ġsunset": 8253,
      "gery": 8254,
      "oting": 8255,
      "Ġparaly": 8256,
      "ĠSU": 8257,
      "Ġdevast": 8258,
      "ugust": 8259,
      "Ġtrench": 8260,
      "ĠAngel": 8261,
      "Ġbehavior": 8262,
      "ok": 8263,
      "Ġbeloved": 8264,
      "Ġcocked": 8265,
      "lyn": 8266,
      "ĠVer": 8267,
      "Ġdish": 8268,
      "Ġarc": 8269,
      "Ġmothers": 8270,
      "Ġvalu": 8271,
      "Ġanxious": 8272,
      "Ġthor": 8273,
      "Ġrubble": 8274,
      "Ġcrushing": 8275,
      "ĠAnyways": 8276,
      "Ġexecution": 8277,
      "Ġren": 8278,
      "ONE": 8279,
      "Ġdestiny": 8280,
      "Ġgrateful": 8281,
      "estern": 8282,
      "ĠLie": 8283,
      "Ġdeliber": 8284,
      "specially": 8285,
      "Ġperspective": 8286,
      "Ġsucc": 8287,
      "Ġowned": 8288,
      "ĠSk": 8289,
      "uge": 8290,
      "ĠFa": 8291,
      "Ġafterwards": 8292,
      "Ġwoken": 8293,
      "Ġdrained": 8294,
      "othy": 8295,
      "Ġplague": 8296,
      "Ġburns": 8297,
      "Ġsales": 8298,
      "ĠSally": 8299,
      "earing": 8300,
      "ontroll": 8301,
      "Ġretire": 8302,
      "Ġinsult": 8303,
      "lement": 8304,
      "ety": 8305,
      "ouched": 8306,
      "Ġfeedback": 8307,
      "vas": 8308,
      "Ġwicked": 8309,
      "ĠDest": 8310,
      "Ġresul": 8311,
      "iser": 8312,
      "Ġouter": 8313,
      "Ġassoc": 8314,
      "ttes": 8315,
      "Ġalike": 8316,
      "Ġram": 8317,
      "Ġfantasy": 8318,
      "//": 8319,
      "ĠImp": 8320,
      "Ġjoking": 8321,
      "Ġprotected": 8322,
      "Ġparan": 8323,
      "Ġwisdom": 8324,
      "Ġspeakers": 8325,
      "Ġdevelopment": 8326,
      "hib": 8327,
      "Ġexerc": 8328,
      "Ġbellowed": 8329,
      "Ġknuckles": 8330,
      "Ġicy": 8331,
      "Ġque": 8332,
      "Ġsunk": 8333,
      "Ġdriveway": 8334,
      "Ġsang": 8335,
      "Ġunfamiliar": 8336,
      "Ġsugar": 8337,
      "Ġfinishing": 8338,
      "Ġinformed": 8339,
      "~~~~~~~~": 8340,
      "Ġeyelids": 8341,
      "word": 8342,
      "Ġmouths": 8343,
      "Ġscales": 8344,
      "ĠCount": 8345,
      "ĠDNA": 8346,
      "Ġchoo": 8347,
      "Ġnan": 8348,
      "Ġnasty": 8349,
      "Ġpoked": 8350,
      "ĠRod": 8351,
      "Ġtyped": 8352,
      "Ġtack": 8353,
      "asting": 8354,
      "ĠSky": 8355,
      "ĠStrange": 8356,
      "olf": 8357,
      "ulating": 8358,
      "arled": 8359,
      "Ġshack": 8360,
      "ĠWashington": 8361,
      "Ġtwisting": 8362,
      "Ġscore": 8363,
      "herent": 8364,
      "celer": 8365,
      "Ġtripped": 8366,
      "Ġhighway": 8367,
      "uffs": 8368,
      "Ġcompass": 8369,
      "Ġsack": 8370,
      "Ġbabies": 8371,
      "sl": 8372,
      "ĠBad": 8373,
      "unching": 8374,
      "uffed": 8375,
      "Ġdating": 8376,
      "Ġsail": 8377,
      "Ġcrad": 8378,
      "Ġheartbeat": 8379,
      "Ġvomit": 8380,
      "ĠHard": 8381,
      "Ġgenetic": 8382,
      "Ġroads": 8383,
      "Ġteachers": 8384,
      "Ġladder": 8385,
      "Ġaudible": 8386,
      "Ġetc": 8387,
      "Ġdict": 8388,
      "atting": 8389,
      "ĠJenn": 8390,
      "Ġouts": 8391,
      "Ġstealing": 8392,
      "Ġtribe": 8393,
      "Ġmarry": 8394,
      "ĠBrother": 8395,
      "Ġdrowned": 8396,
      "Ġkills": 8397,
      "Ġleaf": 8398,
      "Ġpicks": 8399,
      "Ġphotograph": 8400,
      "Ġinsect": 8401,
      "Ġhelpless": 8402,
      "ĠPrincess": 8403,
      "Ġinternal": 8404,
      "Ġindividuals": 8405,
      "ĠDef": 8406,
      "Ġdiamond": 8407,
      "hhh": 8408,
      "Ġswirling": 8409,
      "Ġinfected": 8410,
      "wild": 8411,
      "vey": 8412,
      "Ġproperty": 8413,
      "Ġphones": 8414,
      "*''": 8415,
      "uster": 8416,
      "ties": 8417,
      "Ġder": 8418,
      "ĠGrim": 8419,
      "ĠMem": 8420,
      "Ġarmies": 8421,
      "Ġobserved": 8422,
      "Ġnarrowed": 8423,
      "ĠShar": 8424,
      "Ġfolder": 8425,
      "Ġdisappearing": 8426,
      "ixty": 8427,
      "ĠHappy": 8428,
      "ĠAz": 8429,
      "Ġfloat": 8430,
      "omeday": 8431,
      "gl": 8432,
      "never": 8433,
      "Ġbubble": 8434,
      "Ġfiery": 8435,
      "Ġcomments": 8436,
      "**:": 8437,
      "Ġcoward": 8438,
      "Ġnostrils": 8439,
      "Ġyells": 8440,
      "ĠUncle": 8441,
      "Ġcautiously": 8442,
      "ĠJune": 8443,
      "Ġhord": 8444,
      "Ġnodding": 8445,
      "ĠFore": 8446,
      "Ġadapt": 8447,
      "Ġappropriate": 8448,
      "Ġwishing": 8449,
      "ĠEspecially": 8450,
      "Ġbuying": 8451,
      "Ġsuspected": 8452,
      "Ġsequ": 8453,
      "ulous": 8454,
      "Ġodds": 8455,
      "ĠDonald": 8456,
      "Ġconference": 8457,
      "ĠStay": 8458,
      "Ġbarren": 8459,
      "AND": 8460,
      "ĠTurning": 8461,
      "Ġsurrender": 8462,
      "ĠClo": 8463,
      "Ġcack": 8464,
      "ĠCass": 8465,
      "Ġtips": 8466,
      "ĠEld": 8467,
      "Ġprick": 8468,
      "this": 8469,
      "ean": 8470,
      "vant": 8471,
      "iner": 8472,
      "chair": 8473,
      "opher": 8474,
      "Ġrotting": 8475,
      "Ġseparated": 8476,
      "ĠInc": 8477,
      "epend": 8478,
      "AP": 8479,
      "Ġguest": 8480,
      "Ġtreasure": 8481,
      "Ġprize": 8482,
      "Ġargue": 8483,
      "Ġwires": 8484,
      "ĠCap": 8485,
      "reek": 8486,
      "Ġinvasion": 8487,
      "Ġfurious": 8488,
      "Ġcreepy": 8489,
      "Ġguarant": 8490,
      "Ġboomed": 8491,
      "Ġfurrowed": 8492,
      "Ġpresented": 8493,
      "Ġambulance": 8494,
      "Ġnut": 8495,
      "Ġmicrophone": 8496,
      "ĠBritish": 8497,
      "ĠCreat": 8498,
      "five": 8499,
      "ĠWater": 8500,
      "Ġlif": 8501,
      "Ġovercome": 8502,
      "Ġlocks": 8503,
      "Ġintim": 8504,
      "urned": 8505,
      "Ġuniversity": 8506,
      "14": 8507,
      "ĠWall": 8508,
      "angs": 8509,
      "Ġpoo": 8510,
      "ĠHopefully": 8511,
      "ĠSitting": 8512,
      "Ġtheirs": 8513,
      "Ġbarked": 8514,
      "Ġclown": 8515,
      "Ġspells": 8516,
      "HHHH": 8517,
      "ĠSO": 8518,
      "Ġlover": 8519,
      "Ġsuspicious": 8520,
      "Ġremn": 8521,
      "belie": 8522,
      "Ġpatiently": 8523,
      "ĠFUCKING": 8524,
      "Ġapplic": 8525,
      "ĠCat": 8526,
      "Ġtact": 8527,
      "Ġcandles": 8528,
      "Ġscenar": 8529,
      "Ġcomplicated": 8530,
      "ĠCy": 8531,
      "ugs": 8532,
      "itches": 8533,
      "ĠImag": 8534,
      "!!''": 8535,
      "Ġfreaking": 8536,
      "Ġskeleton": 8537,
      "piece": 8538,
      "Ġsib": 8539,
      "Ġgroan": 8540,
      "Ġmotor": 8541,
      "Ġrescue": 8542,
      "Ġnic": 8543,
      "16": 8544,
      "Ġgym": 8545,
      "Ġcord": 8546,
      "ĠMaria": 8547,
      "Ġimportantly": 8548,
      "Ġannoy": 8549,
      "Ġprotocol": 8550,
      "Ġgifts": 8551,
      "Ġteenager": 8552,
      "Ġswallow": 8553,
      "Ġsatisfaction": 8554,
      "ĠPlus": 8555,
      "Ġfilthy": 8556,
      "Ġsons": 8557,
      "Ġhills": 8558,
      "ĠApril": 8559,
      "unks": 8560,
      "Ġpatience": 8561,
      "ixture": 8562,
      "Ġtricks": 8563,
      "ĠSeven": 8564,
      "resh": 8565,
      "Ġvote": 8566,
      "Ġacid": 8567,
      "Ġmatched": 8568,
      "Ġcreeping": 8569,
      "Ġsubjects": 8570,
      "Ġawhile": 8571,
      "imp": 8572,
      "roc": 8573,
      "Ġtoe": 8574,
      "ĠHaw": 8575,
      "ĠAtl": 8576,
      "Ġscythe": 8577,
      "Ġslit": 8578,
      "ĠJonathan": 8579,
      "Ġspraw": 8580,
      "Ġconditions": 8581,
      "inge": 8582,
      "ĠGuess": 8583,
      "Ġgorge": 8584,
      "ugged": 8585,
      "Ġwarn": 8586,
      "Ġfreezing": 8587,
      "Ġshuddered": 8588,
      "But": 8589,
      "Ġtightened": 8590,
      "Ġmoonlight": 8591,
      "ĠSuperman": 8592,
      "ĠRose": 8593,
      "Ġrecorded": 8594,
      "Ġfingert": 8595,
      "ĠMatthew": 8596,
      "Ġitem": 8597,
      "ĠSeeing": 8598,
      "Ġwarehouse": 8599,
      "ĠAnn": 8600,
      "Ġscanning": 8601,
      "arter": 8602,
      "Ġbacks": 8603,
      "Ġsprinted": 8604,
      "Ġmurderer": 8605,
      "Ġpecul": 8606,
      "Ġ*****": 8607,
      "Ġholog": 8608,
      "gor": 8609,
      "Ġtablet": 8610,
      "Ġartist": 8611,
      "ĠCarol": 8612,
      "Ġbaseball": 8613,
      "Ġunfortunately": 8614,
      "oken": 8615,
      "Ġbug": 8616,
      "bell": 8617,
      "ĠTerry": 8618,
      "enth": 8619,
      "ĠBull": 8620,
      "Ġprocedure": 8621,
      "rons": 8622,
      "ĠSad": 8623,
      "Ġreplace": 8624,
      "ĠEDIT": 8625,
      "Ġmommy": 8626,
      "Ġlump": 8627,
      "Ġponder": 8628,
      "If": 8629,
      "see": 8630,
      "ĠJer": 8631,
      "Ġsinking": 8632,
      "ĠSan": 8633,
      "Ġflashlight": 8634,
      "Ġunle": 8635,
      "ĠHero": 8636,
      "Ġswimming": 8637,
      "Ġsofa": 8638,
      "Ġirre": 8639,
      "ĠChad": 8640,
      "Ġexhaust": 8641,
      "ĠKorea": 8642,
      "Ġsemi": 8643,
      "Ġseeking": 8644,
      "Ġconstruction": 8645,
      "ĠMight": 8646,
      "ĠPot": 8647,
      "Ġexasper": 8648,
      "Ġroommate": 8649,
      "ĠMonday": 8650,
      "Ġstriking": 8651,
      "Ġacted": 8652,
      "Ġ90": 8653,
      "Ġdelivery": 8654,
      "Ġpondered": 8655,
      "Ġfairy": 8656,
      "Ġcombination": 8657,
      "Ġregardless": 8658,
      "Ġhyster": 8659,
      "Ġintrig": 8660,
      "Ġlobby": 8661,
      "Ġtorch": 8662,
      "Ġcandid": 8663,
      "ser": 8664,
      "Ġknives": 8665,
      "Ġworm": 8666,
      "ĠFoll": 8667,
      "ĠSara": 8668,
      "Ġcompanions": 8669,
      "*?": 8670,
      "Ġsimpl": 8671,
      "Ġattractive": 8672,
      "Ġhastily": 8673,
      "Sh": 8674,
      "Ġspilling": 8675,
      "Ġacceler": 8676,
      "Ġgentlemen": 8677,
      "oe": 8678,
      "she": 8679,
      "Ġmemor": 8680,
      "Ġcollective": 8681,
      "ĠBur": 8682,
      "Ġflies": 8683,
      "inds": 8684,
      "Ġchip": 8685,
      "Ġdil": 8686,
      "Ġrabbit": 8687,
      "Ġcoord": 8688,
      "Ġcaress": 8689,
      "Ġtowns": 8690,
      "Ġdeer": 8691,
      "renched": 8692,
      "Ġera": 8693,
      "Ġrobber": 8694,
      "astern": 8695,
      "ĠPerfect": 8696,
      "Ġtan": 8697,
      "Ġrein": 8698,
      "Ġterminal": 8699,
      "ĠArm": 8700,
      "Ġavoided": 8701,
      "Ġfarther": 8702,
      "Ġtoast": 8703,
      "ador": 8704,
      "Ġwept": 8705,
      "ĠFam": 8706,
      "Ġkidn": 8707,
      "Ġincrease": 8708,
      "arse": 8709,
      "Ġpointless": 8710,
      "Ġsweaty": 8711,
      "Ġnumerous": 8712,
      "ĠGord": 8713,
      "Ġultimate": 8714,
      "Ġjuice": 8715,
      "Ġthorough": 8716,
      "ĠâĢĻ.": 8717,
      "Ġvain": 8718,
      "Ġalongside": 8719,
      "Ġrubber": 8720,
      "Ġterribly": 8721,
      "Ġsped": 8722,
      "Ġrepair": 8723,
      "Ġinfant": 8724,
      "Ġconversations": 8725,
      "Ġstumble": 8726,
      "ITH": 8727,
      "Ġshove": 8728,
      "ĠDire": 8729,
      "Ġarrog": 8730,
      "isting": 8731,
      "Ġcoins": 8732,
      "Ġremar": 8733,
      "Ġwatches": 8734,
      "Ġteaching": 8735,
      "actly": 8736,
      "Ġ80": 8737,
      "Ġducked": 8738,
      "Ġdrain": 8739,
      "Ġpunct": 8740,
      "iating": 8741,
      "Ġmisery": 8742,
      "Ġrebu": 8743,
      "Ġadults": 8744,
      "ĠNormally": 8745,
      "inates": 8746,
      "Ġforearm": 8747,
      "Ġ500": 8748,
      "Ġtighter": 8749,
      "Ġbewild": 8750,
      "aaaa": 8751,
      "Ġdrifting": 8752,
      "etheless": 8753,
      "vable": 8754,
      "ĠMoon": 8755,
      "ĠNor": 8756,
      "Ġabsent": 8757,
      "early": 8758,
      "Ġcampa": 8759,
      "Ġreminder": 8760,
      "Ġstroke": 8761,
      "Ġselected": 8762,
      "ĠBell": 8763,
      "Ġpraying": 8764,
      "Ġglist": 8765,
      "Ġimpressed": 8766,
      "Ġappearing": 8767,
      "Ġpretending": 8768,
      "Ġimpression": 8769,
      "Ġcombined": 8770,
      "Ġdiagn": 8771,
      "Ġbon": 8772,
      "Ġmillennia": 8773,
      "isher": 8774,
      "ending": 8775,
      "jam": 8776,
      "Ġblessed": 8777,
      "Ġfollows": 8778,
      "antha": 8779,
      "Ġalt": 8780,
      "Ġvivid": 8781,
      "Ġcapture": 8782,
      "Ġelbow": 8783,
      "Ġvisibly": 8784,
      "Ġdeny": 8785,
      "Ġ~~": 8786,
      "Ġdining": 8787,
      "unction": 8788,
      "Ġmotionless": 8789,
      "Ġpatients": 8790,
      "vol": 8791,
      "Ġlicked": 8792,
      "oty": 8793,
      "sey": 8794,
      "riends": 8795,
      "Ġsqueeze": 8796,
      "Ġspi": 8797,
      "Ġoblig": 8798,
      "cony": 8799,
      "esty": 8800,
      "Ġpeak": 8801,
      "Ġdarkened": 8802,
      "Ġhunched": 8803,
      "Ġghosts": 8804,
      "aunt": 8805,
      "ado": 8806,
      "Ġoccupied": 8807,
      "Ġplates": 8808,
      "ĠLog": 8809,
      "ĠDerek": 8810,
      "Ġadmin": 8811,
      "Ġrounded": 8812,
      "Ġbucket": 8813,
      "Ġginger": 8814,
      "Ġuncontroll": 8815,
      "Ġavoiding": 8816,
      "ĠMO": 8817,
      "ĠFall": 8818,
      "Ġreader": 8819,
      "ĠTodd": 8820,
      "Ġlic": 8821,
      "Ġslice": 8822,
      "Ġcigarettes": 8823,
      "Ġprimitive": 8824,
      "Ġweary": 8825,
      "ĠPM": 8826,
      "Ġstrained": 8827,
      "Ġimpr": 8828,
      "des": 8829,
      "gal": 8830,
      "Ġmall": 8831,
      "Ġprepar": 8832,
      "Ġkil": 8833,
      "Ġchips": 8834,
      "Ġwaitress": 8835,
      "Ġsnatched": 8836,
      "Ġsharing": 8837,
      "ĠGoodbye": 8838,
      "Ġmagnific": 8839,
      "Ġlav": 8840,
      "Ġshorter": 8841,
      "ĠLau": 8842,
      "Ġposted": 8843,
      "Ġcommanded": 8844,
      "Ġbark": 8845,
      "Ġprinc": 8846,
      "Ġboom": 8847,
      "Ġbooming": 8848,
      "Ġbarrier": 8849,
      "Ġdoom": 8850,
      "una": 8851,
      "Ġcasting": 8852,
      "Ġhovering": 8853,
      "Ġmomentarily": 8854,
      "Ġdrum": 8855,
      "heart": 8856,
      "Ġtested": 8857,
      "Ġnurses": 8858,
      "uk": 8859,
      "Ġdamaged": 8860,
      "uum": 8861,
      "zzy": 8862,
      "Ġforb": 8863,
      "Ġscor": 8864,
      "Ġhuff": 8865,
      "iplom": 8866,
      "ĠGET": 8867,
      "Ġevolution": 8868,
      "Ġbalcony": 8869,
      "ĠClaire": 8870,
      "ĠWor": 8871,
      "Ġjungle": 8872,
      "uations": 8873,
      "Ġrays": 8874,
      "Ġmasses": 8875,
      "Ġvampire": 8876,
      "Ġpeculiar": 8877,
      "ĠStreet": 8878,
      "cript": 8879,
      "Ġfragile": 8880,
      "Ġfitting": 8881,
      "âĢĵ": 8882,
      "Ġencounter": 8883,
      "Ġsignificant": 8884,
      "Ġdorm": 8885,
      "astered": 8886,
      "ĠAugust": 8887,
      "Ġcreative": 8888,
      "retty": 8889,
      "Ġinjured": 8890,
      "ĠMort": 8891,
      "Ġfantastic": 8892,
      "cal": 8893,
      "rum": 8894,
      "Ġlust": 8895,
      "Ġhunter": 8896,
      "Ġexamined": 8897,
      "ACK": 8898,
      "gie": 8899,
      "anity": 8900,
      "Ġspoon": 8901,
      "Ġchal": 8902,
      "Ġelimin": 8903,
      "orage": 8904,
      "Ġpron": 8905,
      "Ġstraightened": 8906,
      "Ġdebt": 8907,
      "Be": 8908,
      "Ġashes": 8909,
      "Ġexperiences": 8910,
      "Ġbouncing": 8911,
      "IGHT": 8912,
      "ĠFif": 8913,
      "ĠBobby": 8914,
      "van": 8915,
      "Ġfumbled": 8916,
      "ĠCE": 8917,
      "Ġarmour": 8918,
      "ĠCanada": 8919,
      "Ġclicking": 8920,
      "Ġmenacing": 8921,
      "otted": 8922,
      "Ġripping": 8923,
      "Ġmessed": 8924,
      "ĠSame": 8925,
      "Ġterritory": 8926,
      "Ġdisplayed": 8927,
      "Ġqual": 8928,
      "Ġquarters": 8929,
      "Ġexcitedly": 8930,
      "ĠAnyone": 8931,
      "Ġabsurd": 8932,
      "ĠTech": 8933,
      "ĠJud": 8934,
      "Ġpossessed": 8935,
      "IA": 8936,
      "Ġmans": 8937,
      "ĠOrder": 8938,
      "Ġtattered": 8939,
      "Ġpy": 8940,
      "ĠFrancis": 8941,
      "Ġbush": 8942,
      "ĠImmedi": 8943,
      "Ġtrembled": 8944,
      "ĠWalking": 8945,
      "Ġaisle": 8946,
      "Ġquestioning": 8947,
      "Ġcane": 8948,
      "An": 8949,
      "Yes": 8950,
      "Ġunaware": 8951,
      "Ġcentral": 8952,
      "works": 8953,
      "bits": 8954,
      "acter": 8955,
      "Ġfights": 8956,
      "cery": 8957,
      "Ġmocking": 8958,
      "cular": 8959,
      "Ġfrank": 8960,
      "Ġgrowth": 8961,
      "athed": 8962,
      "Ġhardest": 8963,
      "ĠSecret": 8964,
      "Ġchoking": 8965,
      "ĠFacebook": 8966,
      "Ġtray": 8967,
      "Ġincluded": 8968,
      "ifully": 8969,
      "Ġtowel": 8970,
      "Ġrumors": 8971,
      "enny": 8972,
      "Ġsucks": 8973,
      "ĠSmall": 8974,
      "ĠAir": 8975,
      "outhern": 8976,
      "Ġslumber": 8977,
      "Ġcostume": 8978,
      "Ġhuddled": 8979,
      "mony": 8980,
      "Ġelabor": 8981,
      "ĠLeave": 8982,
      "ĠEyes": 8983,
      "ĠRachel": 8984,
      "Ġreturns": 8985,
      "Ġsuited": 8986,
      "Ġwhee": 8987,
      "ĠJew": 8988,
      "ĠGun": 8989,
      "Ġpassengers": 8990,
      "HAHA": 8991,
      "Ġreduced": 8992,
      "ĠNeed": 8993,
      "Ġraz": 8994,
      "Ġfrantic": 8995,
      "ĠHor": 8996,
      "abeth": 8997,
      "Ġsafely": 8998,
      "Ġsuspe": 8999,
      "Ġclipboard": 9000,
      "ĠJay": 9001,
      "Ġscout": 9002,
      "Ġsyn": 9003,
      "Ġpuddle": 9004,
      "Ġfinest": 9005,
      "Ġpleading": 9006,
      "Ġpolished": 9007,
      "ĠAL": 9008,
      "ĠGe": 9009,
      "Ġsexual": 9010,
      "Ġmini": 9011,
      "Ġcontest": 9012,
      "ountered": 9013,
      "ĠIndeed": 9014,
      "Al": 9015,
      "asingly": 9016,
      "ĠAround": 9017,
      "ĠDarkness": 9018,
      "Ġpreferred": 9019,
      "Ġembarrassed": 9020,
      "XX": 9021,
      "gment": 9022,
      "Ġsore": 9023,
      "Ġgren": 9024,
      "ĠFed": 9025,
      "ĠKaren": 9026,
      "ĠGovern": 9027,
      "Ġservices": 9028,
      "Ġsports": 9029,
      "sters": 9030,
      "ulty": 9031,
      "Ġinsurance": 9032,
      "****************": 9033,
      "Ġbrutal": 9034,
      "Ġneut": 9035,
      "Ġcomposure": 9036,
      "win": 9037,
      "Ġuses": 9038,
      "âĸĪ": 9039,
      "agging": 9040,
      "Ġemptiness": 9041,
      "Ġidentical": 9042,
      "ĠTurns": 9043,
      "Ġjerked": 9044,
      "Ġmortals": 9045,
      "Ġguests": 9046,
      "ĠSomewhere": 9047,
      "watch": 9048,
      "Ġpuppy": 9049,
      "Ġvaluable": 9050,
      "akable": 9051,
      "Ġsnorted": 9052,
      "Ġapocalypse": 9053,
      "Ġoutstretched": 9054,
      "ĠWin": 9055,
      "Ġbrushing": 9056,
      "Ġgleaming": 9057,
      "Ġstain": 9058,
      "orned": 9059,
      "ĠDeep": 9060,
      "Ġranks": 9061,
      "Ġexplaining": 9062,
      "Ġlocated": 9063,
      "Ġsnapping": 9064,
      "Ġacknowledge": 9065,
      "eland": 9066,
      "onym": 9067,
      "Ġspray": 9068,
      "Ġflicker": 9069,
      "Ġsoup": 9070,
      "Ġdrones": 9071,
      "Ġrecl": 9072,
      "Ġsubreddit": 9073,
      "Ġdegrees": 9074,
      "Ġperpet": 9075,
      "ĠSamantha": 9076,
      "Ġencountered": 9077,
      "Ġsoothing": 9078,
      "Ġah": 9079,
      "Ġmelo": 9080,
      "Ġdraft": 9081,
      "ĠiP": 9082,
      "Ġscoffed": 9083,
      "wing": 9084,
      "Ġskinny": 9085,
      "EEEE": 9086,
      "Ġshuttle": 9087,
      "Ġrod": 9088,
      "Ġidiots": 9089,
      "Ġsized": 9090,
      "Ġsocks": 9091,
      "Ġbelieving": 9092,
      "wik": 9093,
      "Ġwounded": 9094,
      "Ġsharply": 9095,
      "ĠMuch": 9096,
      "Ġslave": 9097,
      "Ġmax": 9098,
      "Ġconver": 9099,
      "Ġreco": 9100,
      "Ġwinced": 9101,
      "Ġcriticism": 9102,
      "Ġfingertips": 9103,
      "Ġseed": 9104,
      "Ġfolk": 9105,
      "Ġparadise": 9106,
      "Ġpoorly": 9107,
      "Ġ45": 9108,
      "Ġoptim": 9109,
      "Ġinstinctively": 9110,
      "gue": 9111,
      "Ġnational": 9112,
      "ĠHy": 9113,
      "Ġstruct": 9114,
      "GE": 9115,
      "isation": 9116,
      "Ġgay": 9117,
      "Ġactive": 9118,
      "Ġdigital": 9119,
      "ĠFel": 9120,
      "Ġblankets": 9121,
      "Ġreddit": 9122,
      "ray": 9123,
      "attering": 9124,
      "Ġwhimper": 9125,
      "Ġstubb": 9126,
      "Ġdirected": 9127,
      "Ġwink": 9128,
      "Ġhen": 9129,
      "Ġgrumbled": 9130,
      "Ġworker": 9131,
      "Ġlottery": 9132,
      "Ġscrewed": 9133,
      "Ġpermanent": 9134,
      "ĠJedi": 9135,
      "writing": 9136,
      "Ġexter": 9137,
      "Ġoo": 9138,
      "Ġmessy": 9139,
      "ĠTal": 9140,
      "Ġauthority": 9141,
      "Ġcriminals": 9142,
      "isy": 9143,
      "Ġlittered": 9144,
      "Ġshopping": 9145,
      "Ġsticky": 9146,
      "Ġaccomplish": 9147,
      "arian": 9148,
      "Ġseal": 9149,
      "ounding": 9150,
      "ĠEnough": 9151,
      "uttering": 9152,
      "Ġrac": 9153,
      "Ġdash": 9154,
      "Ġincon": 9155,
      "Ġblurred": 9156,
      "Ġlogic": 9157,
      "Ġcheered": 9158,
      "Ġstrongest": 9159,
      "Ġcampaign": 9160,
      "ĠPull": 9161,
      "Ġcompar": 9162,
      "Ġhurting": 9163,
      "Ġthir": 9164,
      "Ġroaring": 9165,
      "ogue": 9166,
      "Ġ2016": 9167,
      "ya": 9168,
      "Ġcurtain": 9169,
      "Ġmush": 9170,
      "Ġdwell": 9171,
      "Ġbetrayed": 9172,
      "Ġgorgeous": 9173,
      "Ġmaid": 9174,
      "rand": 9175,
      "Ġloop": 9176,
      "Ġtalks": 9177,
      "Ġdealt": 9178,
      "Ġintimid": 9179,
      "Ġfund": 9180,
      "Ġshiver": 9181,
      "Ġteenage": 9182,
      "Ġsuperhero": 9183,
      "ĠImmediately": 9184,
      "ĠWatch": 9185,
      "Ġvia": 9186,
      "izzy": 9187,
      "Ġsworn": 9188,
      "Ġblinded": 9189,
      "Every": 9190,
      "immed": 9191,
      "Ġvul": 9192,
      "Ġroots": 9193,
      "had": 9194,
[...]
